_ 160312024
ที่ 20200252
การ 14095837
ใน 11930413
และ 10717952
ได้ 10164794
มี 9776767
ของ 9743431
เป็น 9582154
จะ 8492538
, 8334944
ให้ 7637118
ไม่ 7090003
. 6464133
ความ 6187345
มา 5982647
ว่า 5863660
ไป 5840227
จาก 5220037
- 5205798
นี้ 5043084
กับ 5022535
ๆ 4969169
ก็ 4682959
ทำ 4516993
) 4107815
( 4059679
ผู้ 3709216
งาน 3528327
กัน 3289140
คน 3242654
ใช้ 3150353
ด้วย 3121055
อย่าง 3091277
แล้ว 3051574
เรา 3012218
โดย 2999159
หรือ 2874610
ตัว 2856131
อยู่ 2766275
นั้น 2764965
แต่ 2728338
รับ 2621131
มาก 2603113
ดี 2590128
วัน 2506801
คุณ 2497289
ขึ้น 2383048
ต้อง 2289540
: 2270695
เพื่อ 2204620
เข้า 2185263
ทาง 2158032
เขา 2101637
" 2090007
ถึง 2060288
ออก 2055700
ยัง 2039030
ซึ่ง 2028170
สามารถ 1980469
ปี 1952448
/ 1906244
1 1844620
แบบ 1824324
เงิน 1823467
ต่อ 1818944
สำหรับ 1812381
มัน 1711558
คือ 1709277
2 1702174
เมื่อ 1657709
ส่วน 1641996
ผม 1609416
อีก 1601941
ทั้ง 1584223
เลย 1576022
ทุก 1504920
% 1500657
น้ำ 1499387
เรื่อง 1485744
ดู 1458430
ลง 1433476
ตาม 1426569
นัก 1400041
เวลา 1343318
เพราะ 1332723
3 1330124
ฉัน 1324000
ราคา 1313472
หน้า 1307603
รถ 1280190
กว่า 1271028
หลัง 1261830
นำ 1258849
ถูก 1251181
บ้าน 1238831
ผล 1234733
เกิด 1208202
เล่น 1204219
เครื่อง 1193530
พร้อม 1193255
เอง 1178145
ครั้ง 1166940
สี 1160431
” 1158212
หนึ่ง 1145371
ต่าง 1132469
โรค 1127705
ไทย 1125284
ใหม่ 1123915
ครับ 1098629
พวก 1082428
เรียน 1055625
ใหญ่ 1054627
“ 1048822
ด้าน 1027878
สิ่ง 1027009
จัด 1020439
รวม 1007246
! 1005815
ก่อน 993748
ช่วย 973373
เห็น 973183
น่า 964398
บน 957534
อาหาร 955678
ผ่าน 952200
โรง 945375
ไว้ 941376
ถ้า 934130
ค้า 930391
จึง 927725
รู้ 927342
ขาย 927214
ส่ง 918734
ท่าน 915120
นะ 913286
เช่น 910683
ดัง 904839
ร่วม 900689
4 898601
หา 882691
อะไร 882430
อาจ 876094
5 875388
ขอ 870570
บริการ 863602
สูง 863317
คำ 849139
ทีม 848385
ตอน 845305
ที่สุด 842414
แห่ง 841918
นี่ 825259
สร้าง 822114
หลาย 822034
เพิ่ม 819573
จริง 817661
ซื้อ 813861
คิด 813481
เธอ 806766
อื่น 797724
เอา 792910
ขนาด 791730
ห้อง 790293
ค่า 782157
ระบบ 780026
เลือก 769285
บาง 762047
ร้าน 754016
ศึกษา 750380
เดียว 749869
เท่า 746848
รักษา 743749
ค่ะ 740497
ภาพ 737680
กำลัง 733473
เด็ก 731508
ภาย 726314
ก 717742
ต้องการ 715785
แรก 706059
ช่วง 699247
ออนไลน์ 696692
ลูก 696604
เหมือน 693095
โลก 691220
ประเทศ 690841
เมือง 689417
ชื่อ 683569
กลับ 679398
? 678231
นอก 675863
สิน 674104
แสดง 671141
สอง 669656
ชีวิต 669628
อยาก 668864
เปิด 665591
เลือด 665458
สะเก็ด 664099
# 662656
รุ่น 655071
ข้อมูล 652675
กล่าว 652479
ข้อ 647771
ลด 645959
สุด 643459
วิธี 635614
เกม 631369
ยา 623363
พบ 622158
รัก 620616
น 616595
บอก 616243
ระดับ 613848
ตั้ง 610947
สาว 608512
หนัง 603269
บริษัท 601975
ชาย 599773
เพียง 598987
เดือน 597383
จน 586463
พัก 585480
6 581485
หาก 574233
บาท 569605
ติด 567495
กลุ่ม 566332
มือ 564302
จำนวน 558375
สำคัญ 555669
ใคร 553741
ใช่ 553459
10 551678
ชั้น 550102
ราย 540320
บอล 540239
ปรสิต 539410
เส้น 537308
น้อย 537155
เคย 532973
ควร 531846
... 531400
ชาว 529535
ตรง 521477
พัฒนา 519660
ปัญหา 519503
แค่ 519181
ชุด 517185
สาย 514822
ไม้ 512951
กลาง 507153
ประกอบ 505529
ต้น 500236
รูป 498967
ใบ 497451
เล็ก 496878
ระหว่าง 495990
พื้นที่ 495859
ด 491571
ง่าย 489496
ไร 487665
เสีย 485189
อัน 484445
ไหน 483529
รอบ 483054
ส 480302
ประมาณ 477170
ผลิต 467791
เพลง 467492
0 464980
ม 463962
ชาติ 462018
ทรง 461857
เกี่ยว 460550
ใด 455491
7 451003
จุด 449600
เริ่ม 448880
เดินทาง 446066
ละ 441907
ตั้งแต่ 440659
สนใจ 439358
ที 438354
ใส่ 437303
ฯ 435211
พ.ศ. 433425
สู่ 430304
เสียง 430258
เรียก 430054
ขณะ 429125
ทุน 428921
ข่าว 428893
อ่าน 426587
นั่น 424534
ทั้งหมด 424498
ยิ่ง 422613
ตา 422371
ประจำ 421230
ถือ 420208
สมัคร 420074
โครงการ 419645
– 413844
เฉพาะ 413717
[ 409696
หญิง 409111
] 407840
สวย 404917
อ 404430
ชอบ 404375
8 402084
พูด 401725
* 400939
เดิน 400823
ใต้ 400370
ข้าง 395298
คู่ 394810
พิเศษ 394302
ผิว 393816
แก่ 393531
เพื่อน 391564
ภัย 390913
มอง 390888
พอ 387954
หลัก 387512
แรง 387400
คะ 387037
ตลาด 386286
เจ้า 384616
ธุรกิจ 382701
คง 382309
ฟรี 379280
ภาษา 377943
เว็บ 377829
เก็บ 377694
เหล่า 377545
ตลอด 375485
รู้สึก 372933
วาง 372786
แม้ 372259
ณ 371990
ระยะ 371447
แม่ 371333
แข่งขัน 369251
ไฟ 367246
ภาค 366832
เขียน 366757
เนื่อง 365169
กิน 362640
ดำเนิน 360048
อาการ 359785
ผลิตภัณฑ์ 358902
E0 358458
แทน 358306
ดำ 356151
แนะนำ 354631
แรม 353982
คืน 350658
ผ้า 350298
คุณภาพ 349689
ตน 348992
โอกาส 348542
000 347550
ท 347268
ชม 346166
ลูกค้า 345827
ล้าน 345453
> 343295
ผิด 343046
เปลี่ยน 341639
กิจกรรม 341262
+ 339985
ตก 339889
ปฏิบัติ 339465
ยนต์ 338883
ปัจจุบัน 338399
อายุ 338343
สั่ง 335524
ชนิด 334957
นอน 334490
วัด 333980
9 333737
เกิน 333176
แต่ละ 327527
20 327097
ยอด 327095
ประกาศ 325847
แนว 325420
แฟน 325204
เดิม 324818
กำหนด 324500
คณะ 322116
นาน 321395
30 321313
ชนะ 320966
ถ่าย 320381
บ้าง 319491
ขา 319463
ยาว 316925
ตอบ 316817
นาย 315813
มากมาย 315760
สมาชิก 314783
ลอง 314604
00 314458
กอง 313834
12 313633
จำกัด 311648
นั่ง 310713
ขาว 309762
เร็ว 308776
เนื้อ 308026
ท่องเที่ยว 305045
เขต 304113
สาร 302945
com 302888
บ 302835
เสนอ 299741
ร่างกาย 298798
[!und:] 297751
เย็ด 297298
ทั่ว 297279
B8 296543
บท 296417
2561 296075
สมัย 296056
สถานที่ 294707
อุปกรณ์ 294462
ครีม 293704
ปรับ 293608
15 291473
ประเทศไทย 289888
ไม่ว่า 289275
ถาม 288276
ประเภท 288141
ประตู 287912
น. 287560
ร้อน 287058
ต 286442
บริเวณ 285514
จับ 285404
หนังสือ 284054
เว็บไซต์ 283678
หมด 283451
สะดวก 280843
หัว 280322
นิยม 279333
บริหาร 278489
หนอน 278282
เต็ม 276520
ทอง 276408
แดง 276372
2018 275867
ไหม 275426
แผน 275269
รายการ 274766
พ่อ 273500
ญี่ปุ่น 272967
จังหวัด 272655
รูปแบบ 272618
ปกติ 272566
ร 272536
' 269552
ประโยชน์ 269530
จัดการ 268883
ฟัง 268364
ใกล้ 268252
ไฟฟ้า 267884
ปลอด 267634
11 267612
ฝ่าย 266242
ปิด 265100
ซี 263588
ตำแหน่ง 263239
… 261839
พา 260383
หี 260028
โปรแกรม 259441
ป้องกัน 259150
นม 258315
เสริม 257864
เข้าใจ 257567
นาย@@ 257273
ค 256954
เชื่อ 256696
ทั่วไป 256462
หมาย 256380
ล่าสุด 255583
รอง 255180
วัย 254805
สาม 254386
ยอม 253712
จีน 252900
พระองค์ 251420
แทง 250874
หมู่ 250636
ดูแล 250279
เรือ 250278
เที่ยว 250241
น้อง 250054
เจอ 249730
ง 249258
เตรียม 247872
อย่า 247494
ม. 246756
รางวัล 246575
สด 246449
ศูนย์ 245258
แน่นอน 244990
อังกฤษ 244829
นา 244712
รายละเอียด 244687
นาที 244261
ไง 243237
เกมส์ 242691
นิ้ว 241576
ปลา 240974
จำเป็น 240792
ช่อง 240672
มนุษย์ 240558
16 240427
อันดับ 240205
เทคโนโลยี 239632
มัก 239539
แต่ง 239401
คลิป 239284
จำหน่าย 238180
เพิ่มเติม 237632
พระ 237118
100 237090
18 236317
ประกัน 236108
สอน 235831
คาสิโน 235475
ยก 235304
บิน 235034
สัก 234960
บุคคล 234815
เหตุ 234549
ธรรมชาติ 234068
ดอก 233796
กรณี 233318
ตาย 233213
ว 232428
ประชุม 231918
อากาศ 231791
เท้า 231310
สัตว์ 230191
แจ้ง 230028
สำเร็จ 228988
ลักษณะ 228825
สภาพ 228689
ตรวจ 228334
สุขภาพ 228031
จบ 227539
ถนน 227380
พิมพ์ 227327
แสง 227221
พนัน 226596
เลข 225574
เหนือ 225472
หยุด 224536
พนักงาน 224383
เสื้อ 223948
รอ 222168
สังคม 222115
ทราบ 220656
หน่วย 220631
สวน 220588
เหมาะ 220284
= 220032
คุณ@@ 219405
ฟุตบอล 219092
ตรวจสอบ 219006
ก็ตาม 218710
ดาว 217767
จ่าย 217556
อาคาร 217352
กลาย 216271
ราชการ 215759
สุข 215564
ติดต่อ 215526
ลีก 215257
สะอาด 213903
ดิน 213749
รู้จัก 212258
ยาง 212066
ประชาชน 211760
พี่ 210955
ยาก 210747
เช่า 210726
กล้อง 210343
แตกต่าง 209922
ใจ 209608
วง 209393
กีฬา 209321
นัด 209188
หน้าที่ 209135
13 208536
ทะเล 208418
นับ 207728
สบาย 207715
ประสบการณ์ 207681
ครอบครัว 206866
เย็น 206677
ค.ศ. 205336
ครู 205232
ไลค์ 205116
สุดท้าย 204770
หลวง 204695
น้ำมัน 203809
ตัด 202674
ดวง 202223
สื่อ 201434
14 201256
สนาม 201154
โป๊ 200347
ป่า 199542
พยายาม 199478
า 199243
ควบคุม 198958
โดน 198886
of 197752
เรียนรู้ 197337
เก่า 196574
ค่อย 196369
ครบ 196001
24 195383
หวัง 194739
ล 194419
กรรมการ 193572
เหรียญ 193499
แพทย์ 193151
ขยาย 193123
สาขา 193086
ต่ำ 192592
ปาก 192587
แหล่ง 191778
รายงาน 191704
สวยงาม 190411
เหลือ 190331
ขับ 189980
จ้าง 189391
a 189252
เจ้าหน้าที่ 187189
กาย 187143
ร้อง 186626
ติดตั้ง 186444
ล่ะ 185398
ดื่ม 185397
กฎหมาย 184567
เชื้อ 184480
จอ 184421
in 183898
เจ้าของ 183525
ละคร 183037
เยอะ 182591
หลอด 181785
เสมอ 181544
ตะวัน 181345
เลี้ยง 180532
ชั่วโมง 180225
เริ่มต้น 180208
มิ 179895
ร้อย 179743
สอบ 179605
ยู 179425
มาตรฐาน 179218
ทันที 179105
x 178987
; 178931
พื้น 178831
ทำไม 178004
อำนวย 177652
17 177629
แก้ 177576
หลากหลาย 177242
50 176890
สนับสนุน 176844
ลาย 176690
เพศ 176270
อก 175902
เป็นต้น 175537
หวย 175444
ชิ้น 175147
ประสิทธิภาพ 174596
ข้า 173667
ยังคง 173185
แยก 173178
ล่าง 172791
วิจัย 172395
.. 172177
กระเป๋า 172120
สนุก 172065
ปล่อย 172052
กด 171775
ขอด 171077
25 170992
ปลาย 170484
หนัก 169283
ตู้ 169070
โทรศัพท์ 168686
& 168503
องค์ 168497
ติดตาม 167970
ได้แก่ 167927
ทะเบียน 167894
แท้ 167559
แบ่ง 167440
ยิง 167012
น้ำหนัก 166907
อดีต 166789
ข้าว 166768
บัตร 166006
ยุค 165301
​ 164856
2560 164735
คัน 164583
The 164280
เปลี่ยนแปลง 163588
ประธาน 163572
ย้าย 163364
ผสม 163115
เหมาะสม 162933
รอย 162840
หน่อย 162323
อัตรา 162305
แก้ไข 161792
รัฐบาล 161764
ลม 160977
ทาน 160192
่ 160000
ชุมชน 159905
เมตร 159678
ลำ 159375
เช้า 158646
เค้า 158051
ขาด 158027
วิเคราะห์ 157908
ช่าง 157561
กลาก 157098
สั้น 157082
19 156950
หาย 156836
เปล่า 156534
หนุ่ม 156507
แผ่น 156282
นาง 156058
พันธุ์ 156048
ท่า 156015
เตะ 155971
คอมพิวเตอร์ 155841
ระบุ 155393
ชน 155304
ทหาร 155062
www 154887
รัฐ 154825
บัญชี 154146
โทร 153584
รวดเร็ว 153493
สัญญา 153462
เกี่ยวข้อง 153135
ช่วยเหลือ 152869
ทัน 152864
ต่อเนื่อง 152395
มหาวิทยาลัย 151933
อาชีพ 151379
อุตสาหกรรม 151194
ป่วย 151170
ตัดสินใจ 150877
หลักสูตร 150855
วิ่ง 150846
พิจารณา 150558
ย 150067
เลิศ 149805
ทัวร์ 149635
21 149562
สำนัก 149092
ลาก 148727
โต 148480
มือถือ 148258
เศรษฐกิจ 148226
ฟ้า 147613
แถม 147364
ตัวอย่าง 147362
เอกสาร 146905
ขอบคุณ 146431
คอ 146415
the 145675
พระ@@ 145438
จนถึง 144906
องค์กร 144837
จำ 144776
and 143625
ฝาก 143559
มอบ 143070
สัปดาห์ 143064
สถาบัน 142592
@ 142577
อำนาจ 141974
งบ 141952
แบรนด์ 141662
อาทิตย์ 141444
จ 140884
วิว 140720
ท้อง 140589
โปรด 140407
ตี 140222
ควย 140181
รี 139951
Giardia 139771
โทษ 139676
ทั้งนี้ 139481
เสี่ยง 139266
ใช้จ่าย 139005
สัมผัส 138941
คิดเห็น 138727
สูตร 138700
แก้ว 138550
เวิร์ม 138515
หัวใจ 138477
กา 138439
ภาพยนตร์ 138259
ฝึก 138089
ส@@ 137203
22 136667
ถูกต้อง 136564
ขน 136518
วิชา 136456
D@@ 136305
คะแนน 136163
แชมป์ 135880
เหล็ก 135871
ตกแต่ง 135792
ทดสอบ 135683
เน้น 135644
หุ้น 135408
ล้าง 135278
คาด 135054
พัน 134744
ค่อนข้าง 134660
ชา 134644
T@@ 134545
รองเท้า 134470
แข็งแรง 134394
สิทธิ 134034
ไข่ 133961
A 133676
โต๊ะ 133666
แตก 133543
ช 133309
แสน 133250
กว้าง 133104
ฝั่ง 133088
มั้ย 132899
จอง 132826
เสร็จ 132809
เพจ 132705
ขั้น 132696
ไร้ 132544
พ 132239
เมนู 131745
เบอร์ 131445
ลา 131348
กระทำ 131341
ปรากฏ 130978
ตำรวจ 130823
เกาะ 130706
อำเภอ 130697
ถุง 130148
สโมสร 129956
เส้นทาง 129946
คดี 129890
เชิง 129816
สิ 129794
เอ 129704
ทิ้ง 129649
วัตถุ 129420
พยาบาล 129404
กล่อง 129328
s 129307
สไตล์ 129209
ตัน 129179
โปรโมชั่น 128933
โหลด 128541
บรรยากาศ 128509
ทัพ 128468
K@@ 128323
ชัดเจน 128253
ประสบ 128245
23 128216
เมือง@@ 128207
แพ้ 127972
ครึ่ง 127887
ป 127877
ฐาน 127699
คุณสมบัติ 127680
บันทึก 127276
ศึก 127099
โชว์ 126987
หนู 126862
เล่า 126803
“@@ 126777
พลังงาน 126575
อ่อน 126545
กลัว 126342
ส่งเสริม 126306
N@@ 126219
วัสดุ 126104
ที่ดิน 126006
แข็ง 125880
รองรับ 125683
เรื่องราว 125310
เกาหลี 125292
มั่นใจ 124812
อน 124203
ฐานะ 124024
หิน 123946
หลุด 123630
ปลูก 123525
นาม 123504
ฆ่า 123033
พิธี 122941
จิต 122807
รับรอง 122698
งาม 122617
ฝัน 122403
ไกล 122358
ฤดูกาล 122346
เป้าหมาย 122319
ค้นหา 122288
2017 121839
S@@ 121571
ปริมาณ 121547
on 121321
ทั้งหลาย 121151
ทีเดียว 121003
ฉบับ 120998
หน้าอก 120940
ไอ 120839
พฤศจิกายน 120696
กลิ่น 120616
แปล 120574
ธรรม 120213
หู 120047
สัญญาณ 119833
ก่อ 119635
i 119002
ซ้าย 118992
อนาคต 118911
ขั้นตอน 118790
พลัง 118772
P@@ 118652
มุม 118542
พยาธิ 118408
F@@ 118044
สี่ 118036
ก่อสร้าง 117941
นายก 117862
60 117850
ยอดเยี่ยม 117666
คุ้ม 117519
ฤดู 117469
กี่ 117433
< 117304
B@@ 117293
ลึก 117244
คว้า 117062
xxx 116835
พืช 116805
ข้อความ 116564
กระแส 116395
R@@ 116352
L@@ 116319
ดนตรี 116047
ใส 116039
ปรับปรุง 116014
ขวา 115987
บุญ 115825
s@@ 115807
เหตุการณ์ 115720
H@@ 115679
รัฐมนตรี 115644
เหตุผล 115512
แก 115264
กำจัด 115215
เยี่ยม 114830
หอม 114811
กระดูก 114784
40 114712
กระทบ 114550
อารมณ์ 114182
ลบ 114093
เพิ่ง 114065
เครื่องมือ 114062
สาเหตุ 113582
อร่อย 113490
คอย 113274
ผิวหนัง 113195
C@@ 113128
อ@@ 113008
เล่ม 112820
แมว 112087
เทคนิค 111417
คุย 111289
้ 111219
โฆษณา 111194
to 111156
โชค 111082
เปิดตัว 111022
เหรอ 111004
ท้าย 110972
ปกครอง 110929
บ่อย 110874
แอบ 110768
สถานี 110706
เขียว 110459
เช็ค 110425
M@@ 110146
เกือบ 110141
ทา 109770
ดัน 109688
วิทยาศาสตร์ 109677
ตาราง 109615
สัมพันธ์ 109221
คล้าย 108930
เอก 108920
G@@ 108862
ลืม 108821
ห่าง 108641
ร้าย 108624
ตุลาคม 108293
28 108248
ม@@ 108160
ยืนยัน 108035
แห้ง 108008
ชำระ 107874
แหละ 107703
อา@@ 107454
หวาน 107448
น้ำตาล 107445
ไก่ 107181
ท้องถิ่น 107158
26 107131
แน่ 107038
รับประทาน 106959
แน่น 106910
แวดล้อม 106898
เรียบร้อย 106833
เสื้อผ้า 106744
เบา 106639
เรื่อย 106384
ไหร่ 106202
เด็ด 106135
นโยบาย 106057
พื้นฐาน 105718
พลาสติก 105354
ฝน 105331
อ. 105247
ผ่าตัด 105235
th 105144
ป้าย 105090
เม็ด 105066
คลิก 104925
อาจารย์ 104574
จ. 104461
ศิลปะ 104288
k@@ 104074
อันตราย 104055
ประกวด 103820
ไหล 103810
สมบูรณ์ 103679
เดิมพัน 103664
อยู่แล้ว 103402
หมอ 103335
บริโภค 103295
อง 102970
ต้อนรับ 102727
เทียบ 102566
ข้าม 102539
จันทร์ 102508
แท้จริง 102427
ประสงค์ 102234
บังคับ 102164
สอบถาม 102130
แนวทาง 102111
บาคาร่า 102052
พลาด 102005
สงคราม 101917
o 101712
แข่ง 101643
ร่าง 101602
วิชาการ 101374
วัฒนธรรม 101360
500 101322
t@@ 101253
09 101221
อนุญาต 101130
เต้า 100938
ก@@ 100747
สถาน 100668
สิงหาคม 100603
ล้อ 100582
2559 100479
’ 100222
กันยายน 100023
บรรดา 99998
แพง 99995
น@@ 99985
27 99927
สิบ 99875
ลับ 99535
ยินดี 99280
เกษตร 99051
แขน 98978
วงจร 98960
ราว 98916
คอนโด 98887
ชัด 98706
ด่วน 98706
ว่าง 98675
m@@ 98595
มูลค่า 98523
รหัส 98260
บี 98251
ชิง 98169
แดน 97703
เผย 97680
ซะ 97567
เปิดเผย 97434
แมน 97429
29 97378
ตำบล 97295
ห้าม 97249
น่ะ 96799
W@@ 96717
เสียหาย 96689
แถว 96672
อาศัย 96619
รีบ 96575
ไฟล์ 96430
ตกลง 96373
จี 95913
แผ่นดิน 95816
ชัย 95535
เครือข่าย 95389
ประวัติศาสตร์ 95199
เชิญ 95094
V@@ 95022
ภาวะ 94949
ท@@ 94704
ฟ 94616
ประหยัด 94574
ประเมิน 94202
บำรุง 94113
กิจการ 94047
ปั้มไลค์ 93916
หรอก 93889
สงสัย 93829
เชียงใหม่ 93796
จง 93705
ก่อนหน้า 93650
กระบวน 93460
กรุงเทพมหานคร 93455
ป. 93148
วิดีโอ 93135
สรุป 93041
เจริญ 92969
ละเอียด 92690
กระจก 92558
เดอะ 92527
เอ@@ 92469
ยืน 92457
ท่อ 92443
สุนัข 92440
มีนาคม 92396
ได้ยิน 92310
31 92304
เก่ง 92192
n@@ 92074
คา 92066
ย่อม 92017
กระดาษ 91951
f@@ 91826
สมุนไพร 91527
e 91484
อี 91448
กาแฟ 90940
สมอง 90759
คลับ 90616
โอ 90560
รุนแรง 90502
วัด@@ 90481
ต@@ 90387
C 90283
แอร์ 90037
เซลล์ 90036
สระ 90023
พล 90012
x@@ 89976
สิทธิ์ 89965
ธรรมดา 89924
ปวด 89799
J@@ 89774
โอ@@ 89621
ฟัน 89570
รู 89523
� 89508
หัวหน้า 89491
80 89456
อเมริกา 89438
มิถุนายน 89402
ศาล 89377
อธิบาย 89321
ร่วมมือ 89318
• 89209
e@@ 89097
ปุ่ม 88989
61 88981
อม 88923
ห้องน้ำ 88857
แฟชั่น 88851
ทำลาย 88685
b@@ 88405
ปืน 88331
p@@ 88287
ผู้คน 88252
d@@ 88153
จอด 88130
ยื่น 88005
โอเค 87992
ภาษี 87977
หนี 87946
งั้น 87916
เมษายน 87893
กล้า 87836
บรรจุ 87547
บุตร 87457
เสียว 87448
ดา 87381
ธนาคาร 87279
รา 87216
ล่า 87216
เติม 87182
ฉาก 87119
พร 87091
แดด 87032
i@@ 86955
ซ 86845
เบื้อง 86604
A@@ 86578
ยุโรป 86468
กู้ 86299
นก 86273
ปรึกษา 86262
หัน 86185
ต่อสู้ 86168
Thailand 85886
ถวาย 85821
ม้า 85779
ฝรั่งเศส 85607
\ 85589
เติบโต 85501
E 85305
รูปภาพ 85162
ตรา 85063
มกราคม 84988
ฉีด 84951
เนื้อหา 84945
ช้าง 84921
โครงสร้าง 84890
g@@ 84833
ing 84825
ทดลอง 84814
สวม 84752
y@@ 84694
สื่อสาร 84678
อวัยวะ 84343
200 84333
เดี่ยว 84308
2@@ 84270
E@@ 84103
นึก 84082
สถานการณ์ 84072
ปู 83943
เหลือง 83887
ว่าย 83834
ก้าว 83797
หนา 83786
โบราณ 83751
ปัจจัย 83737
กรกฎาคม 83726
เมีย 83665
ดึง 83621
for 83542
ป@@ 83524
ไร่ 83497
มะเร็ง 83437
ผัก 83271
จัก 83180
ดูด 83093
ริม 83070
กางเกง 82734
ดาวน์ 82692
คัดเลือก 82599
จักรยาน 82592
เตือน 82513
วิ@@ 82466
I 82362
กรอบ 82357
ร@@ 82319
ศาสนา 82252
ช@@ 82186
แต่งงาน 82070
เตียง 82011
หมู 82010
กำไร 81953
สำรวจ 81912
฿ 81868
เพชร 81867
ตั๋ว 81658
ย่าน 81555
แทบ 81542
c@@ 81416
ว@@ 81396
ข 81277
90 81187
ใกล้เคียง 81167
รถไฟ 81139
ตั้งใจ 81116
รวบรวม 81023
พี่@@ 80997
ธันวาคม 80949
หัวข้อ 80883
เยือน 80789
เลิก 80723
ดำรง 80567
เจ็บ 80505
ค@@ 80436
พฤษภาคม 80409
สัน 80394
ซัก 80360
ด@@ 80343
ไส้ 80341
โรงเรียน 80310
ปริญญา 79934
การ์ตูน 79725
โอน 79704
เชี่ยวชาญ 79675
นึง 79652
เล็กน้อย 79532
พระเจ้า 79462
S 79430
h@@ 79339
สังเกต 79321
อิสระ 79306
หาด 79303
เทพ 79237
X 79129
ไขมัน 79093
» 79075
มา@@ 79070
แผล 79067
นาฬิกา 79037
ฉะนั้น 79028
2016 78817
เลือกตั้ง 78761
รับผิดชอบ 78630
พักผ่อน 78589
ทน 78537
2558 78416
อบรม 78218
หลับ 78217
โพสต์ 78119
http 77950
ยึด 77895
แปลง 77893
ประเด็น 77879
๑ 77846
ทักษะ 77780
ลำดับ 77731
ทรัพย์ 77699
ฯลฯ 77687
ค่าย 77654
ช้า 77410
valgus 77372
หมายเลข 77336
ขนม 77321
M 77275
วงการ 77214
ถิ่น 77198
เสพ 77153
ซ่อม 77047
ไนเต็ด 77033
หอ 77015
เอเชีย 76862
คม 76839
y 76821
รส 76727
ครัว 76686
นา@@ 76681
ขอบ 76550
อบ 76530
สร้างสรรค์ 76205
ซอย 76030
นวด 76002
กรุง 76000
ซ้ำ 75863
ชื่อเสียง 75810
วา 75786
ดารา 75625
พรรค 75616
ทราย 75589
บาดเจ็บ 75541
นาง@@ 75477
O@@ 75353
มาตรา 75224
a@@ 75072
เจ้า@@ 75028
กระตุ้น 75019
ประดับ 75007
หน 75001
สังกัด 75000
ประทับใจ 74982
สุ@@ 74610
3@@ 74444
ความหมาย 74382
จังหวะ 74220
ศรี 74043
กิโลเมตร 73917
เวที 73722
อัตโนมัติ 73553
an 73539
เครดิต 73471
ล@@ 73418
จาน 73366
02 73307
พิษ 73246
ค้น 73241
จด 73129
บวก 73081
บันเทิง 72757
บ@@ 72712
อาบ 72697
ขนส่ง 72682
ฟอร์ม 72674
หล่อ 72671
ไล่ 72580
ได 72527
D 72507
Y@@ 72500
นานา 72405
SBOBET 72368
ed 72271
กำกับ 72093
ทีวี 72043
สงบ 71779
พ@@ 71750
เต็มที่ 71739
ถัง 71732
เสาร์ 71710
ทั้งสิ้น 71706
วิทยา 71576
กระจาย 71523
กา@@ 71523
สหรัฐ 71390
๒ 71378
สู้ 71357
กุมภาพันธ์ 71291
35 71276
โดยสาร 71251
เม@@ 71237
ชวน 71031
ช่องทาง 70956
2557 70868
ทํา 70816
เคลื่อน 70800
ติ 70786
B9 70780
ศพ 70739
ฝรั่ง 70722
ดีไซน์ 70672
‘ 70625
เชื่อม 70602
ระบาย 70540
พี 70415
ย@@ 70334
โฟน 70324
08 70299
เซ@@ 70260
มงคล 70224
หุ่น 70152
ทางการ 70136
ทิศ 70038
การ์ด 69995
โดดเด่น 69801
บุก 69794
by 69790
สม 69738
เสา 69656
าง 69612
สะสม 69460
er@@ 69299
ย่อย 69299
in@@ 69277
เมล็ด 69242
รา@@ 69118
หลักฐาน 69084
v@@ 69060
an@@ 68996
พ.ย. 68888
อัด 68631
กะ 68595
เคลื่อนไหว 68585
เน 68451
T 68424
อุณหภูมิ 68400
พอใจ 68393
อักเสบ 68365
วิตามิน 68297
ยืด 68214
เร@@ 67865
r@@ 67860
สิว 67811
al@@ 67806
45 67784
กำเนิด 67717
มิ@@ 67623
er 67580
ก้อน 67539
ธ 67331
เร่ง 67298
วี 67250
เคมี 67239
เด@@ 67103
หนี้ 67099
ครอง 67022
4@@ 67014
co 67000
w@@ 66999
ระวัง 66947
เซ็น 66885
ถึงแม้ 66837
6@@ 66635
j@@ 66569
เชื่อมต่อ 66528
เทศกาล 66511
สถิติ 66439
ภูมิภาค 66351
ดิบ 66280
ประสาน 66202
บทบาท 66167
กลม 66093
วาด 66079
Z@@ 66050
เยาวชน 65938
ch@@ 65863
แน่ใจ 65845
ชี้ 65823
อย 65582
ซื้อขาย 65555
ประการ 65549
ยิ่งใหญ่ 65313
คลื่น 65276
เน@@ 65261
รสชาติ 65199
at 65184
นวัตกรรม 65087
es 65059
32 65049
ลอย 64936
en 64896
u 64799
เฉลี่ย 64791
เรือน 64723
เลื่อน 64719
มั่นคง 64691
สวัสดี 64655
1@@ 64651
หนาว 64641
ยาม 64635
แป้ง 64632
นุ่ม 64630
8@@ 64608
ศ 64405
รีวิว 64260
แปลก 64191
ลุ้น 64190
ระเบิด 64125
เร 64122
พฤติกรรม 64061
7@@ 63906
อิ@@ 63895
มหาชน 63699
ยี่ห้อ 63610
ห้า 63592
I@@ 63502
เงื่อนไข 63484
L 63451
พรีเมียร์ 63451
ซา@@ 63408
U@@ 63387
นิ@@ 63287
มิตร 63230
ศิลปิน 63132
อุด 63129
อาทิ 63101
เดี๋ยว 63080
นี 63065
ตับ 63037
กรอง 62967
คา@@ 62946
กระ@@ 62884
เชื่อถือ 62850
สว่าง 62812
99 62740
บาร์ 62700
ผนัง 62641
จิตใจ 62633
t 62611
ภูเขา 62588
ระเบียบ 62585
สกุล 62546
l@@ 62502
z@@ 62413
300 62407
อา 62394
10@@ 62378
เจาะ 62371
คุม 62329
n 62316
สายตา 62266
ฟ@@ 62255
คราว 62243
ไพ่ 62170
อี@@ 62154
เล@@ 62148
ไข้ 62110
หมา 61913
ประวัติ 61898
5@@ 61852
อักษร 61820
01 61725
70 61692
เอฟ 61625
Like 61613
https 61533
แรงงาน 61477
เป 61459
ลี 61154
เสด็จ 61152
ไว 61138
อิน 60878
ถ่ายทอด 60787
ไหว 60651
ถ 60635
B 60471
เค@@ 60424
ดับ 60413
iPhone 60323
9@@ 60117
มวย 60112
คลอง 60023
แข้ง 59975
เปรียบเทียบ 59963
ซิ 59951
ถอด 59933
เด่น 59918
แจก 59865
เพียงพอ 59786
m 59743
ตรี 59740
Facebook 59716
u@@ 59704
บ้าน@@ 59624
18@@ 59611
ถ้าหาก 59593
สมาร์ท 59589
2015 59518
ชมพู 59434
ยาวนาน 59413
กังวล 59361
แบตเตอรี่ 59343
สหรัฐอเมริกา 59231
หญ้า 59207
X@@ 59203
เอกชน 59189
สาธารณะ 59156
ปกป้อง 59068
ส้ม 58812
จนกระทั่ง 58801
ตอบสนอง 58800
พอดี 58778
วินาที 58770
ขี้ 58735
ปฏิเสธ 58664
พ้น 58642
ซี่ 58599
บุคลากร 58507
ซี@@ 58501
ยิ้ม 58336
ภูมิ 58293
สะพาน 58263
เกียรติ 58263
คาราโอเกะ 58255
R 58217
ก่อตั้ง 58160
สมาคม 58116
แลกเปลี่ยน 58041
ทรัพยากร 57995
ง@@ 57959
หลง 57918
คุณค่า 57906
กล้ามเนื้อ 57901
าน 57754
โค 57662
en@@ 57656
ขัด 57630
o@@ 57628
$ 57536
เผยแพร่ 57512
ผึ้ง 57500
ข้าพเจ้า 57493
สภา 57484
ฝีมือ 57454
รบ 57324
รอด 57265
HD 57224
วิทยุ 57222
ขวด 57217
ห้าง 57194
บาน 57193
เน็ต 57143
กระทั่ง 57078
ศักยภาพ 57049
เล็บ 56980
ฉาย 56950
ซิตี้ 56902
สาระ 56839
อ่อนแอ 56819
บุ๊ค 56794
คุ้มครอง 56665
} 56644
สามี 56576
g 56434
เจ@@ 56261
on@@ 56257
ซ@@ 56249
เงียบ 56235
ar@@ 56207
อัลบั้ม 56154
is 56132
al 56026
สัมภาษณ์ 55974
เซอร์ 55948
หายใจ 55876
เถอะ 55815
ตัดสิน 55753
{ 55735
วน 55723
เสือ 55666
ปั่น 55658
อะ 55653
สิ้น 55602
แต่งตั้ง 55488
โท 55367
สำรอง 55336
เพลิง 55300
เทียม 55288
ดิฉัน 55283
ตึก 55268
เท 55232
ทอด 55155
เทศบาล 55038
ลิ@@ 55003
องค์การ 54985
มหา@@ 54943
โร@@ 54887
ลา@@ 54840
สกัด 54812
Google 54804
สูญเสีย 54758
ริ@@ 54620
แต้ม 54592
สีสัน 54561
เรียบ 54509
โซน 54502
ร่ม 54484
มิติ 54449
พูดคุย 54406
ภรรยา 54400
G 54300
อำเภอ@@ 54240
โน 54220
องศา 54144
2014 54071
การณ์ 54070
ถัด 54039
ย่อ 53923
ทุกข์ 53789
แล 53770
เล 53742
2556 53701
job 53690
ต.ค. 53594
อาวุธ 53555
สำนักงาน 53548
at@@ 53542
กระแทก 53537
re@@ 53487
สากล 53470
สุดยอด 53425
0@@ 53389
ถอน 53324
บา@@ 53291
จักร 53218
เรียง 53119
เฝ้า 53108
· 53094
36 52997
กร 52966
โก 52957
คลอด 52954
โทรทัศน์ 52903
ซอง 52779
๓ 52726
ซา 52671
ส์ 52621
สเปน 52562
อินเดีย 52498
US 52471
จ@@ 52402
ประ@@ 52372
กู 52348
ศีรษะ 52344
คอน 52332
ครรภ์ 52265
c 52258
ล้วน 52243
ตำนาน 52167
เบ@@ 52132
แย่ 52090
ภูเก็ต 52067
P 52054
ตา@@ 52053
ลาน 52045
ปัญญา 52025
ถ้วย 51987
จัดตั้ง 51977
สูบ 51950
ะ 51948
ตอบแทน 51899
แถลง 51874
อ้าง 51851
เหลี่ยม 51838
ประสาท 51663
k 51638
เวียดนาม 51472
ผลไม้ 51471
b 51468
โจทย์ 51450
อ้วน 51278
ทรัพย์สิน 51237
คลินิก 51202
เท@@ 51180
สมุด 51097
หมุน 51093
ซับ 51081
33 51051
กม. 50944
เยอรมัน 50860
05 50844
อิเล็กทรอนิกส์ 50826
ประชาสัมพันธ์ 50791
บ้า 50711
ล่วงหน้า 50696
คอม 50654
V 50557
ซ้อม 50527
am@@ 50504
กรรม 50498
55 50392
สะท้อน 50337
นิด 50335
โค@@ 50278
สติ 50165
สถานะ 50114
กรุงเทพฯ 50090
ฝุ่น 50058
รุก 49996
กุญแจ 49992
แอ 49895
วา@@ 49816
ของขวัญ 49780
อล 49769
เต้น 49720
ประชากร 49705
ตระกูล 49669
p 49659
N 49628
เข้ม 49587
พระราชทาน 49583
เหมา 49529
งวด 49521
ปั๊ม 49471
อัพเดท 49458
กรด 49436
ระ@@ 49429
จมูก 49421
บอร์ด 49348
หมื่น 49333
ตื่นเต้น 49324
กระชับ 49265
varices 49227
สินเชื่อ 49134
อินเทอร์เน็ต 49013
โก@@ 48993
พับ 48975
วงศ์ 48894
คิว 48889
จัดหา 48857
ขับเคลื่อน 48843
F 48827
ครอบคลุม 48827
ดี@@ 48819
ฝ้า 48801
ผิดพลาด 48800
ศุกร์ 48777
โร 48765
วิทยาลัย 48714
2012 48708
ลาว 48699
ลุก 48680
07 48593
ฝา 48593
แม่น้ำ 48589
แถบ 48586
สัญลักษณ์ 48566
เกอร์ 48501
บรรยาย 48473
ยน 48432
16@@ 48421
ดอลลาร์ 48400
โม@@ 48360
ขอโทษ 48327
พูล 48313
เฟอร์นิเจอร์ 48281
โจมตี 48264
เว@@ 48165
ชู 48119
บูชา 48094
อด 48088
ทองคำ 48076
เก้าอี้ 48067
แชร์ 48036
อาเซียน 48020
หมึก 48001
เครียด 47946
ศรัทธา 47850
นคร 47807
กล 47774
O 47765
โปร 47755
88 47738
โซ 47725
สดใส 47660
ทารก 47657
งดงาม 47639
ชั้นนำ 47632
ผง 47595
ดิ@@ 47574
รูปร่าง 47563
คัพ 47561
ย้อน 47529
แขก 47527
เปลือก 47520
จัง 47439
ad@@ 47368
ชาร์จ 47360
ตลอดจน 47321
กรุงเทพ 47281
เมืองไทย 47274
รัสเซีย 47257
or 47203
ผี 47160
ซม. 47147
is@@ 47081
โลหะ 47081
ทำเล 47020
ศูนย์กลาง 46991
thrombophlebitis 46988
^ 46967
เนี่ย 46964
สนิท 46949
อุบัติเหตุ 46918
เ@@ 46911
2013 46904
เกษตรกร 46900
ต. 46858
บริสุทธิ์ 46853
สนามบิน 46836
ยกเลิก 46829
ทิศทาง 46816
รบกวน 46786
เจ 46753
ก.ย. 46740
ไวรัส 46727
วิถี 46665
เยียวยา 46664
สนุกสนาน 46658
ปั้ม 46598
ประเทศญี่ปุ่น 46570
รวย 46554
อิตาลี 46520
Ch@@ 46515
พัทยา 46466
สตรี 46426
เทียน 46416
หรู 46408
มุมมอง 46406
ศรี@@ 46383
เนียน 46350
ฮิต 46305
แวะ 46301
กษัตริย์ 46194
กุนซือ 46190
พ่อแม่ 46128
USA 46098
.... 46079
ชื่นชอบ 46075
บ่อ 46054
ภารกิจ 46043
ราช 46029
แนวโน้ม 45973
เตา 45925
พม่า 45924
หมวก 45919
de 45865
หัก 45832
เซ 45782
06 45757
ต่างๆ 45739
le@@ 45725
เธ 45721
เสน่ห์ 45721
Tags 45714
ตื่น 45711
เคส 45711
กรุณา 45703
พิสูจน์ 45692
ไอ้ 45687
ทนทาน 45636
สมควร 45622
เกรด 45613
รัง 45564
ถนน@@ 45399
กิ 45398
กฎ 45392
อาศัยอยู่ 45387
Home 45348
34 45309
15@@ 45307
ราก 45238
ยาน 45232
d 45170
ไซส์ 45159
สยาม 45128
๔ 45091
สืบ 45022
59 45006
ชี 44992
โค้ช 44987
ล็อค 44982
อุ่น 44976
ต้ม 44903
แปร 44846
แหวน 44838
K 44766
อะ@@ 44709
เอกลักษณ์ 44674
48 44672
it@@ 44665
ยั่งยืน 44602
บริจาค 44574
ประมวล 44570
ธาตุ 44536
พิ@@ 44519
ใกล้ชิด 44516
ปั้น 44512
กุล 44460
หน้าตา 44351
03 44349
รี@@ 44335
แบน 44219
ศัตรู 44211
17@@ 44164
พระเจ้า@@ 44126
ยกเว้น 44115
ชัน 44035
th@@ 43906
เยี่ยมชม 43898
ราช@@ 43821
es@@ 43798
คัด 43781
เกลือ 43771
จ้า 43743
น้ำเงิน 43693
บัว 43661
สิ่งของ 43568
อิน@@ 43517
online 43505
เป้า 43505
นิ่ง 43499
13@@ 43432
เคลือบ 43429
กำลังใจ 43428
เลนส์ 43423
ขยะ 43381
ท่วม 43358
เก@@ 43344
แลก 43337
โค้ง 43307
150 43241
เลีย 43216
us 43211
ฟุต 43183
เงี่ยน 43169
พื้นบ้าน 43158
อินเตอร์เน็ต 43156
ธง 43142
วาน 43123
ิ 43118
แช่ 43106
หม้อ 43070
ซิ@@ 43033
หก 42999
ฉลอง 42996
ระลึก 42907
เค้ก 42874
ด. 42850
บริหารจัดการ 42830
ศักดิ์ 42829
ข่าวสาร 42815
2555 42742
กุ้ง 42724
ปรุง 42720
ต่อต้าน 42572
400 42553
ท่ามกลาง 42533
เช@@ 42511
แกน 42510
กิจ 42489
สิ้นสุด 42444
เผา 42436
or@@ 42431
23@@ 42397
Windows 42392
เฉียง 42382
ผ่อนคลาย 42380
พาณิชย์ 42334
มื้อ 42330
โล 42326
สินค้า 42313
ให 42301
หลาน 42245
ข@@ 42224
ดร.@@ 42218
U 42186
ers 42183
หลังคา 42119
04 42118
ญ 42096
ถ้ำ 42084
คู่มือ 42073
ลิ่ม 42033
คำนวณ 41986
ขีด 41939
แข็งแกร่ง 41850
เกียร์ 41838
บุรีรัมย์ 41805
โน@@ 41788
โด 41785
ติ@@ 41768
ก้า 41687
14@@ 41682
et@@ 41681
38 41668
เสมือน 41584
แผนที่ 41582
ฝัง 41575
ทุ่ง 41566
ปีก 41525
เงา 41514
ซ่อน 41501
ชิ@@ 41498
as 41467
st@@ 41426
โต้ 41424
สัดส่วน 41418
l 41404
24@@ 41379
สมาธิ 41373
ผ 41355
รัชกาล 41328
el@@ 41313
as@@ 41288
วินิจฉัย 41254
ต้า 41244
ขับขี่ 41223
อเมริกัน 41191
ขอนแก่น 41137
วิ 41118
เชื่อมโยง 41086
พันธมิตร 41079
เกณฑ์ 40911
หลักการ 40906
กาล 40905
ตัก 40903
หัว@@ 40834
โซ@@ 40793
ประดิษฐ์ 40750
พิพิธภัณฑ์ 40750
กระทู้ 40748
81 40621
ครอบครอง 40605
โม 40600
phlebologist 40587
ค่ำ 40577
W 40559
New 40543
พี่น้อง 40536
กลยุทธ์ 40508
ดินแดน 40504
ประเพณี 40494
University 40478
ดีใจ 40468
แม่@@ 40428
เศษ 40406
บรรทุก 40399
H 40355
พุ่ง 40334
รุ่ง 40326
ส่อง 40288
ปา@@ 40265
ทุ่ม 40254
เว้น 40242
เวอร์ 40213
เหนื่อย 40206
หลีกเลี่ยง 40148
ไหล่ 40142
เสียบ 40131
อ่าง 40125
อบอุ่น 40100
บำบัด 40086
อาสา 40060
สวรรค์ 40036
สอดคล้อง 40027
กระเบื้อง 40009
00@@ 39966
ทาวน์ 39957
GClub 39910
วัง 39859
ทบทวน 39823
โล@@ 39760
ฤทธิ์ 39745
รีสอร์ท 39708
มัธยมศึกษา 39699
58 39659
39 39646
วย 39637
เชียงราย 39637
Apple 39620
กำแพง 39586
ไม 39565
ว่าการ 39549
อ่ะ 39535
สัมมนา 39489
เพ@@ 39487
ชลบุรี 39460
เอ็ม 39457
ปูน 39455
ริด 39454
พวง 39432
ดอกเบี้ย 39421
หยิบ 39415
ac@@ 39411
มาตรการ 39400
เฉลิม 39389
Android 39362
เพลิดเพลิน 39291
มืด 39251
Online 39239
๕ 39214
อุจจาระ 39213
บล็อก 39207
ชัก 39134
LED 39113
พระราชบัญญัติ 39102
ี 39063
โทน 39052
เข้มข้น 39050
37 39036
หลุม 39021
บุหรี่ 38995
ย่าง 38962
ตะ@@ 38961
รัฐธรรมนูญ 38954
ห่วง 38949
เนื้อที่ 38937
ม่วง 38933
ภูมิแพ้ 38895
ic@@ 38852
หน้าต่าง 38837
เคล็ด 38824
เข็ม 38809
สิงห์ 38807
ยู@@ 38789
บวม 38785
with 38782
ตรงข้าม 38741
ชั่น 38701
ประยุกต์ 38698
ค้าง 38668
ฟื้นฟู 38556
ปราสาท 38530
อยู่อาศัย 38486
ไลน์ 38480
เต@@ 38456
75 38393
แอนด์ 38286
r 38186
ซ่า 38143
เบาะ 38141
42 38106
it 38106
สล็อต 38105
เบื่อ 38038
แลนด์ 38013
พึง 37986
ต้าน 37906
กัด 37851
พิการ 37818
อ.@@ 37817
อิทธิพล 37804
กรัม 37793
20@@ 37731
ปอนด์ 37716
el 37624
โมง 37570
อนุรักษ์ 37539
ชิ 37532
รึ 37511
un@@ 37497
โท@@ 37460
เสื่อม 37431
โรงเรียน@@ 37414
มม. 37404
เกาะ@@ 37384
ap@@ 37346
โครง 37326
เทา 37310
เรียกร้อง 37298
เซล 37292
เช็ด 37271
12@@ 37243
ตำบล@@ 37203
Line 37196
เป@@ 37194
ยูโร 37193
รี่ 37151
อนุมัติ 37151
ปลอม 37136
โอ้ 37133
ฮ@@ 37129
ชา@@ 37092
โป้ 37090
เตอร์ 37073
ลิตร 37063
ขุด 37032
บัณฑิต 37024
ยา@@ 37007
ฟิล์ม 37005
ฮ่องกง 37001
มาด 36937
57 36934
พก 36928
หมวด 36914
ลื่น 36898
ชื้น 36866
จนกว่า 36857
คอล 36845
เฮ@@ 36818
การ@@ 36815
ไอเดีย 36804
44 36796
Y 36787
แกะ 36736
สม@@ 36707
2554 36706
56 36705
กอล์ฟ 36681
มะ@@ 36681
พุธ 36667
ฮอร์โมน 36616
เลเซอร์ 36615
แตะ 36600
พึ่ง 36599
โกง 36571
ปฏิทิน 36569
ฝึกอบรม 36567
อุทยาน 36510
เอว 36500
ชั่วคราว 36492
ธ@@ 36485
จุ 36457
ออ 36450
มาร์ 36439
มุ่ง 36432
โคม 36422
อังคาร 36400
USB 36388
โลหิต 36387
ดา@@ 36364
โตโยต้า 36360
มอเตอร์ 36350
ส.ค. 36342
v 36289
อร์ 36272
สลับ 36265
จิ@@ 36258
โอลิมปิก 36210
กรม 36207
บ่าย 36195
ต่างหาก 36182
อิ่ม 36171
มะ 36162
จิ 36157
เถิด 36087
ศ@@ 36074
ทั้งนั้น 36061
ชำนาญ 36035
กว้างขวาง 36021
เทรด 35998
ตรัส 35948
สอบสวน 35927
วัว 35926
di@@ 35919
.@@ 35871
ราง 35865
ออสเตรเลีย 35855
กอบ 35848
ลงตัว 35836
2010 35822
วิชาชีพ 35807
ด่าน 35799
ฮา@@ 35789
เครือ 35735
ทำร้าย 35705
ชีพ 35678
em@@ 35672
อุ@@ 35624
บรรลุ 35554
ญาติ 35549
คลุม 35523
แหลม 35508
เอ็น 35507
คณิตศาสตร์ 35502
neurodermatitis 35501
ศาสตร์ 35439
ลุง 35422
ซู@@ 35394
กิ@@ 35362
เมกา 35253
2562 35234
ดิจิทัล 35227
โก้ 35215
ดั้งเดิม 35211
อิ 35208
มติ 35154
porn 35149
สูงอายุ 35097
800 35088
อาร์@@ 35083
อัพ 35077
ม่าน 35052
สำนักงาน@@ 35043
เมา 35022
ปัด 34988
วิธีการ 34962
สมบูรณ์แบบ 34962
ตร. 34903
ใส่ใจ 34902
บันได 34860
แว่น 34853
เผชิญ 34847
นอกเหนือ 34787
49 34777
ผัว 34767
สารสนเทศ 34747
ร่วง 34737
ดิจิตอล 34639
ก.ค. 34596
อินเตอร์ 34563
สน 34553
ทา@@ 34551
เจรจา 34532
รัฐ@@ 34504
แผนก 34503
เข่า 34489
ล้ม 34484
สำอาง 34479
46 34474
สิงคโปร์ 34467
2011 34434
il@@ 34432
ก้น 34428
เสียใจ 34385
h 34377
หัวเราะ 34371
Sh@@ 34328
เฟ@@ 34312
หรอ 34310
ag@@ 34296
เชื่อมั่น 34274
กระ 34264
ค้อน 34261
เก 34253
แมลง 34245
เคารพ 34238
แขวน 34220
ง่ายดาย 34204
52 34181
ine 34161
เวอร์ชั่น 34137
เครื่องหมาย 34121
600 34091
ประเทศจีน 34081
คับ 34074
มุ่งมั่น 34074
โฮม 34042
95 34039
41 34026
ตุ๊กตา 34020
lazada 33996
Re@@ 33991
Thai 33990
f 33988
เจริญเติบโต 33966
มวล 33941
ดอน 33840
เอส 33838
89 33822
ศัลยกรรม 33816
ฟิต 33801
เบียร์ 33795
จอม 33756
คาดหวัง 33755
เย@@ 33750
เชสเตอร์ 33727
65 33714
ต.@@ 33713
ศาลา 33689
พากย์ 33670
แฟ 33647
พัด 33641
บกพร่อง 33626
เที่ยง 33624
z 33622
ด่าง 33615
ti@@ 33603
ละลาย 33590
ทับ 33589
จราจร 33571
ing@@ 33563
รีสอร์ 33559
เสริมสร้าง 33547
โด@@ 33539
มิ.ย. 33519
มืออาชีพ 33506
มังกร 33475
รัด 33435
บันดาลใจ 33422
ซับซ้อน 33408
คู 33378
54 33367
หุ้ม 33367
โบ@@ 33359
87 33352
ed@@ 33327
Samsung 33318
ลิเวอร์ 33313
sh@@ 33238
กุ@@ 33234
การงาน 33231
อาย 33181
จำลอง 33174
ผ่า 33152
ประชาธิปไตย 33145
ลาด 33141
-@@ 33106
ar 33099
เค 33071
ประมูล 33053
43 33027
หลอก 33018
กรุ๊ป 33017
อัล@@ 33007
ขี่ 32980
ไต 32978
ID 32959
ถี่ 32954
ใย 32933
ต์ 32911
โปรตีน 32907
ตลก 32906
พระราม 32855
วี@@ 32852
ด้า 32846
อีสาน 32812
กั้น 32754
พ.ค. 32745
ฝ่า 32743
Black 32738
le 32731
ทริป 32727
ป้า 32720
บา 32719
เนิน 32701
สตาร์ 32679
84 32659
ซึม 32646
ห@@ 32628
แผง 32617
พรม 32615
ซอฟต์แวร์ 32600
ะ@@ 32587
การเรียนการสอน 32570
53 32558
บีบ 32548
่@@ 32506
ผสมผสาน 32482
สม่ำเสมอ 32482
ยักษ์ 32479
ผลักดัน 32470
พรรษา 32470
ลิ้น 32457
กระนั้น 32448
ia 32416
ชัยชนะ 32415
ร่อง 32414
ขัดแย้ง 32411
ปลด 32387
ท้าทาย 32345
เด 32300
เชียร์ 32265
เลี้ยว 32237
หนอ 32232
พลิก 32228
ปุ๋ย 32224
กระหน่ำ 32205
ขยับ 32190
ro@@ 32187
ยะ 32160
สถาปัตยกรรม 32130
จุดเด่น 32105
คุก 32087
เรอัล 32085
ate 32073
Q@@ 32050
เห็ด 32047
ปีศาจ 32035
ปรารถนา 32027
51 31967
2553 31942
ปรับเปลี่ยน 31913
คลัง 31838
นิทรรศการ 31810
ไท 31768
วะ 31766
กระเทียม 31755
จดหมาย 31703
​​ 31677
กระทรวง 31659
ation 31652
สบู่ 31649
นิตยสาร 31642
นิสัย 31634
ทฤษฎี 31621
แง่ 31614
าย 31599
900 31586
id@@ 31571
ur@@ 31560
บิ๊ก 31557
ตระหนัก 31554
เฟส 31540
ถั่ว 31518
ชั่ว 31478
ลุย 31473
ยาย 31471
ระ 31465
ย่า 31426
ลำโพง 31416
เจล 31411
ตร 31391
ราม 31390
โหมด 31389
ก.พ. 31381
พ. 31372
co@@ 31365
os@@ 31357
am 31291
im@@ 31268
ผัด 31234
วิน 31179
ฮา 31162
พัง 31139
et 31114
มันส์ 31112
w 31074
ฟ้อง 31065
ak@@ 31053
เจ้าตัว 31035
ลำบาก 31017
สิ@@ 30996
ดาวน์โหลด 30990
บิด 30989
ขวัญ 30960
น้า 30935
ครบถ้วน 30905
หาง 30868
ทองแดง 30867
ล่อง 30853
ตูด 30852
หนังสือพิมพ์ 30847
กรอก 30833
เหยื่อ 30798
โน่ 30737
ปัสสาวะ 30731
ลู@@ 30719
ถูกใจ 30712
ณ@@ 30708
ใช 30695
สเปค 30685
ประถมศึกษา 30569
โบนัส 30559
กรม@@ 30542
ล็อก 30519
นครราชสีมา 30512
ไอ@@ 30461
ชม. 30459
มูลนิธิ 30449
มวลชน 30448
ทวาร 30430
ไวน์ 30404
120 30399
ฉลาด 30394
มีด 30371
no 30339
ไซ@@ 30302
250 30295
บัญชา 30249
รูปทรง 30248
หมายเหตุ 30248
เส@@ 30248
ผ่อน 30229
เปรียบ 30208
ชิ้นส่วน 30205
หอย 30177
เทพฯ 30166
วิจารณ์ 30164
พรุ่ง 30156
ไมล์ 30149
ย้ำ 30131
ธรรมเนียม 30128
คอนเสิร์ต 30085
ตัวตน 30071
คร@@ 30060
ไผ่ 30030
สะดวกสบาย 30028
เสียดาย 30018
กล@@ 30007
ภู@@ 29959
ถ@@ 29933
พุทธ 29923
ประทับ 29918
ก้าวหน้า 29908
ab@@ 29904
บวช 29901
สหรัฐฯ 29891
อภัย 29886
ยืดหยุ่น 29883
one 29873
ห 29868
กล้วย 29842
จริงจัง 29836
ยืม 29825
พอสมควร 29819
กระบะ 29808
ชุมนุม 29803
ซ่อมแซม 29803
พระเยโฮวาห์ 29799
ใจกลาง 29790
รู@@ 29753
กิ่ง 29718
เพ 29710
สนทนา 29700
รังสี 29690
ชิม 29678
ผลลัพธ์ 29617
ประเทศ@@ 29595
ม.ค. 29587
ทดแทน 29585
คิ@@ 29575
94 29573
ภาระ 29567
โคตร 29542
วีดีโอ 29520
คราบ 29420
อัล 29415
ชื่นชม 29410
ฟาร์ม 29406
โย 29404
สภาวะ 29403
น้ำ@@ 29381
ดร. 29380
อุปสรรค 29378
ยง 29346
กระโปรง 29342
ออม 29302
พ่น 29248
คอร์ 29242
are 29241
แร่ 29226
ย้อนหลัง 29197
ฝูง 29188
ทอ 29179
ทิ@@ 29176
ตรัง 29171
ระยอง 29153
ท์ 29140
สปอร์ต 29135
64 29087
ปู่ 29084
47 29057
กระโดด 29052
แต่อย่างใด 29051
ิน 29045
พระพุทธเจ้า 29038
ปา 29033
pantip 29027
om@@ 29019
TV 29003
ซาน 28990
จ๊ะ 28956
Hotel 28899
นางสาว@@ 28897
อ้างอิง 28894
รัตน์ 28883
Tagged 28877
มนต์ 28869
ร้องไห้ 28860
สา@@ 28844
มาเลเซีย 28835
แม่นยำ 28813
แพ็ค 28797
mm 28780
ph@@ 28776
ชิน 28774
แก๊ส 28760
กษา 28722
บรรเทา 28722
เป่า 28722
Pro 28697
ปลีก 28692
ขบวน 28684
ี@@ 28677
ตาก 28673
ขโมย 28669
คอนกรีต 28599
ร่า 28592
มอบหมาย 28579
เจน 28557
สุก 28525
โซ่ 28517
นิดหน่อย 28499
se@@ 28494
สอด 28466
สั่น 28454
มด 28440
ห์ 28423
ปฏิรูป 28411
World 28360
แปรง 28336
เหล้า 28320
ศิษย์ 28314
ชั่ง 28250
โฮ 28229
ฉุกเฉิน 28227
สมดุล 28203
สวด 28201
ธ.ค. 28191
ลิขสิทธิ์ 28152
ยุติธรรม 28134
เลน 28123
ก. 28102
_@@ 28079
ไข 28078
แท่ง 28066
ผืน 28061
เอ็ด 28043
รับฟัง 28027
กุศล 28001
หาร 27998
Fanpage 27990
์ 27990
อยุธยา 27954
พันธ์ 27931
คำนึง 27900
ศัพท์ 27891
กลไก 27890
พงษ์ 27889
โฉม 27884
สา 27873
คร 27867
เก่าแก่ 27844
ขุน 27830
av 27823
Th@@ 27822
กร@@ 27813
บิ@@ 27798
พระเกียรติ 27784
ยุทธศาสตร์ 27766
เดินหน้า 27733
ยัน 27731
TH 27721
บี@@ 27709
08@@ 27681
ปลุก 27648
บัส 27626
ออน 27614
กระเพาะ 27613
้@@ 27612
ประธานาธิบดี 27593
lo@@ 27592
คล้ำ 27588
เจอร์ 27564
2551 27561
ทะลุ 27558
line 27551
ถอย 27517
คอร์ด 27479
ก็ดี 27469
ท่อน 27459
พิพากษา 27456
โป 27447
อสังหาริมทรัพย์ 27439
พา@@ 27436
มรดก 27422
ภา 27401
you 27400
ล้ำ 27391
op@@ 27387
ไต้หวัน 27384
พายุ 27379
วีซ่า 27356
สะ@@ 27352
id 27346
All 27345
มอเตอร์ไซค์ 27335
สำเร็จรูป 27332
กะ@@ 27308
เปอร์เซ็นต์ 27267
พฤหัสบดี 27242
ลือ 27234
โต@@ 27233
2552 27229
Center 27228
— 27202
กิโลกรัม 27188
ปัก 27178
ช้อปปิ้ง 27176
ชี้แจง 27173
นคร@@ 27170
Al@@ 27157
คุ@@ 27136
สมบัติ 27128
เก๋ 27109
ol@@ 27096
ก๊าซ 27088
เกย์ 27084
เป้ 27083
คุ้มกัน 27071
ep@@ 27042
เทศ 27030
ปอด 27024
ลวดลาย 27021
ลูก@@ 27003
69 27001
ศักดิ์สิทธิ์ 26984
จัดสรร 26983
วิญญาณ 26971
อร@@ 26961
วิศวกรรม 26946
ิ@@ 26939
ดึงดูด 26918
พึงพอใจ 26916
ตกใจ 26910
ฟา 26905
กัปตัน 26832
ล้อม 26805
กระบวนการ 26802
ดิ 26795
พร@@ 26789
อิสราเอล 26783
่ง 26753
า@@ 26718
เอ็กซ์ 26704
มี.ค. 26676
ic 26665
Galaxy 26653
โกรธ 26611
ศูนย์@@ 26591
Plus 26586
มือสอง 26573
เจ็ด 26571
บ. 26561
ระเบียง 26561
สงฆ์ 26561
ศิลป์ 26555
แบคทีเรีย 26554
ลงมือ 26524
คุ้นเคย 26515
เอาใจ 26503
PC 26500
เศร้า 26492
สต๊อก 26489
นิยาย 26481
ซ้อน 26459
พระพุทธศาสนา 26456
เจดีย์ 26450
เหลว 26444
ทำนอง 26439
กดดัน 26435
ต้นทุน 26433
เซีย 26413
ภ@@ 26366
อาร์ 26360
facebook 26357
เรียว 26326
11@@ 26297
บัญญัติ 26283
ไหม้ 26250
ส. 26247
ไหว้ 26238
ุ 26233
อาณาจักร 26232
ซ์ 26229
li@@ 26225
หมี 26224
คุณธรรม 26218
สกปรก 26214
เเละ 26211
ม้วน 26200
ไอที 26190
บราซิล 26177
ร์ 26159
ริน 26137
หมวดหมู่ 26127
85 26116
หัวหิน 26115
ทรู 26082
62 26059
แอล 26023
คิ้ว 25977
อนุบาล 25963
วุ่นวาย 25958
เทป 25958
หมอน 25955
โย@@ 25955
ตะ 25949
ปัน 25947
ถาวร 25942
วุฒิ 25940
มะพร้าว 25935
โจ 25933
งู 25931
ถาด 25896
ศตวรรษ 25896
ต่อม 25889
One 25888
66 25858
เซนติเมตร 25855
แบ่งปัน 25854
จับกุม 25840
ฟอง 25827
ราศี 25818
เรียบง่าย 25814
จินตนาการ 25795
ญ@@ 25795
av@@ 25782
มารดา 25765
ได@@ 25759
ส่งมอบ 25743
เม 25726
ศีล 25725
ri@@ 25701
ลี@@ 25689
เม.ย. 25689
เบาหวาน 25684
Digital 25678
เยอรมนี 25656
ai 25643
ec@@ 25639
โบสถ์ 25639
~ 25638
สดชื่น 25623
โพส 25622
รีด 25616
สงวน 25612
หน้ากาก 25607
เลขาธิการ 25604
พลอย 25596
พรีเมี่ยม 25592
ขุม 25589
โบ 25576
You 25565
ควัน 25557
ยุ่งยาก 25540
สปา 25526
อะไหล่ 25514
เมล์ 25491
si@@ 25481
ขวบ 25476
กาว 25448
ซุป 25398
53@@ 25380
ปิ้ง 25377
สาธารณสุข 25363
พยาน 25348
thailand 25320
อ.เมือง 25314
หนอน@@ 25302
ประโยค 25301
เพาะ 25276
St@@ 25268
ดี้ 25260
ปิ@@ 25247
ปก 25243
เชือก 25240
แห่งชาติ 25237
ลูกจ้าง 25229
ฺ@@ 25223
โปร่ง 25184
26@@ 25167
cm 25156
โฮ@@ 25152
ผูก 25147
ตีพิมพ์ 25145
2550 25121
รับมือ 25017
เมตตา 25003
เปียก 25002
เสิร์ฟ 24996
72 24990
เหนียว 24989
เจ้าภาพ 24988
เจ็บปวด 24982
ลี่ 24978
ราบ 24976
บิดา 24966
เพศสัมพันธ์ 24952
ดาบ 24934
กระบี่ 24929
In@@ 24895
ลาดพร้าว 24877
กัมพูชา 24853
น์ 24843
iPad 24842
ent 24809
30@@ 24804
ที@@ 24801
um 24800
์@@ 24800
ซีรีส์ 24792
ทูต 24786
อินโดนีเซีย 24779
ซู 24760
สละ 24734
สำนึก 24734
con@@ 24721
sp@@ 24712
ผจญ 24703
ทู 24695
คลอง@@ 24694
เผื่อ 24678
โมเดล 24648
ริ 24639
ฟอก 24627
700 24609
ชง 24604
ปวง 24603
‘@@ 24566
พัฒนาการ 24550
ดัก 24532
เนอร์ 24532
กึ่ง 24531
จาง 24508
แท่น 24499
คริส 24476
พอเพียง 24468
อุดม 24454
บัด 24452
ศิริ 24434
พงศ์ 24403
เด็ดขาด 24399
ot@@ 24391
กรุง@@ 24384
ท็อป 24381
แพ 24379
คล่อง 24374
หวัด 24372
2009 24335
เขื่อน 24330
บุ@@ 24329
มหัศจรรย์ 24268
ก็ได้ 24267
จดจำ 24258
ul@@ 24256
82 24252
บู@@ 24241
มหาวิทยาลัย@@ 24235
โลโก้ 24220
๖ 24218
กลีบ 24212
B2 24202
บัง 24202
eb@@ 24193
แกง 24187
บด 24183
os 24176
ly 24154
เช 24141
เชล 24140
แคบ 24138
หมอก 24128
ต้นแบบ 24111
ฮะ 24105
บาป 24077
up 24075
หรูหรา 24049
Super 24031
ปรัชญา 24028
วิล 24016
บาง@@ 24001
40@@ 24000
จำเลย 23994
นัย 23986
ประทาน 23978
ม่า 23960
กี้ 23949
ไฮโล 23945
เข้มแข็ง 23929
PM 23903
oc@@ 23890
มะนาว 23877
ent@@ 23876
um@@ 23851
อธิบดี 23832
ปราศจาก 23819
ถนัด 23815
จา 23811
กันและกัน 23804
นับถือ 23804
แด่ 23790
ครบครัน 23780
อ้อม 23771
IP 23745
แนบ 23727
เอล 23726
สลาก 23709
25@@ 23708
โด่งดัง 23703
ว่าราชการ 23674
แก้ม 23670
ระมัดระวัง 23659
19@@ 23656
ขั้ว 23651
บก 23639
แห่งประเทศไทย 23633
ไฮไลท์ 23632
ยกย่อง 23631
ุ@@ 23631
คลาย 23622
กีต้าร์ 23616
แนะ 23608
AM 23583
Archives 23530
me 23527
IN@@ 23516
สบายใจ 23496
tr@@ 23492
ไฮ@@ 23475
us@@ 23468
Club 23463
พัดลม 23457
ฮิ@@ 23455
เฮ้าส์ 23447
 23444
พล@@ 23423
ฟื้น 23385
ู 23358
ซูเปอร์ 23337
สกอร์ 23323
รำ 23319
ปาร์ตี้ 23308
กทม. 23307
พระพุทธรูป 23301
ราชวงศ์ 23271
ขนาน 23252
วาระ 23238
’s 23232
la@@ 23224
กี 23216
29@@ 23212
สมรส 23190
ซาก 23174
คอน@@ 23154
ตี้ 23153
อดทน 23116
อินทรีย์ 23111
ผ@@ 23097
มุ@@ 23066
บูธ 23065
สงกรานต์ 23056
ข้าวของ 23055
ฟอร์ 23006
ประพฤติ 23002
เดี๋ยวนี้ 23000
เกาหลีใต้ 22996
สาน 22992
อัลลอฮ์ 22982
บุ 22961
สลาย 22945
ละเมิด 22927
๊@@ 22909
เจ้านาย 22900
ong 22898
เท็จจริง 22889
สร้อย 22872
ประมง 22862
ชก 22860
Free 22853
ละ@@ 22851
ไตรมาส 22844
ั 22836
บุรี 22831
แอพ 22823
ต้นฉบับ 22807
เวย์ 22799
แพร่ 22780
Z 22765
โยน 22728
time 22725
มิน 22724
Royal 22721
แม่เหล็ก 22706
qu@@ 22684
อนามัย 22675
od@@ 22671
ประเทศอังกฤษ 22667
อส 22651
แอ@@ 22637
งอก 22624
สปอร์ 22623
ยี่ 22615
อัจฉริยะ 22613
BTS 22612
09@@ 22609
แท็กซี่ 22599
ไว@@ 22585
หลักเกณฑ์ 22574
ปลา@@ 22572
วิหาร 22563
มหาศาล 22553
ออ@@ 22550
ไว้ใจ 22534
50@@ 22532
เดีย 22531
An@@ 22501
บุ๊ก 22501
มัธยม 22497
ang 22496
บำรุงรักษา 22494
1000 22482
AD 22478
ทิวทัศน์ 22460
Holiday 22447
อั@@ 22447
ออฟ 22437
ลู 22413
เรีย 22399
จี@@ 22398
thai 22397
กระบอก 22397
กอด 22394
เซียน 22382
เกล้า 22379
Read 22377
นี@@ 22377
แปด 22353
การันตี 22352
เยื่อ 22352
วินัย 22339
คราง 22337
ซัมเมอร์ 22334
แอลกอฮอล์ 22326
หยด 22316
แค@@ 22282
เดช 22276
เลส 22275
ไว้วางใจ 22274
ถล่ม 22259
บี้ 22213
เดอร์ 22170
กันเอง 22163
พุทธ@@ 22163
๗ 22160
ลิง 22142
โคน 22141
ขัง 22129
Di@@ 22118
พี@@ 22113
ทิพย์ 22110
โป@@ 22110
หนอง 22100
2008 22084
เซน 22078
จำเพาะ 22077
เก้า 22073
เบล 22073
เซ็นทรัล 22037
หารือ 22023
ดัดแปลง 22021
วิช 22011
แพร่หลาย 21990
จังหวัดเชียงใหม่ 21983
แม่บ้าน 21969
เลอร์ 21958
สุขุม 21951
โจ@@ 21938
เดือดร้อน 21923
งง 21918
ปลัด 21918
ก้าน 21912
ay@@ 21911
พระราช@@ 21910
สามัญ 21907
สแกน 21897
77 21896
ช่อ 21885
ดีเด่น 21883
 21879
แคม 21874
มู@@ 21864
ครอบ 21857
ซิลิโคน 21856
มุ่งเน้น 21855
ไล@@ 21851
﻿ 21840
2000 21838
ชลประทาน 21838
แสวงหา 21828
ส์@@ 21820
ER 21816
เรื้อรัง 21813
under 21790
เบรก 21761
ระงับ 21747
ml 21745
ศ. 21717
Bitcoin 21711
Smart 21674
ขัน 21671
แม่น้ำ@@ 21656
ความทรงจำ 21655
บิล 21648
เจ๋ง 21642
ฟู 21641
คูณ 21622
บาย 21617
ดูแลรักษา 21613
27@@ 21612
สุรินทร์ 21602
Car@@ 21601
สาย@@ 21597
บริษัท@@ 21590
Download 21586
มณฑล 21585
น่อง 21580
97 21565
บางนา 21535
คนเรา 21533
ลอก 21521
ถู 21519
No 21507
มิลาน 21507
เป็นธรรม 21495
RE@@ 21494
Pro@@ 21491
ดง 21488
สมาคม@@ 21488
and@@ 21480
โล่ 21466
อิสลาม 21454
ครั้น 21440
ชื่น 21438
ทุจริต 21423
จี้ 21422
ซิ่ง 21419
อพยพ 21401
พื้นเมือง 21395
hallux 21375
อนิเมะ 21360
สังหาร 21356
EP 21355
เหลือเกิน 21355
หา@@ 21333
ชะลอ 21324
โปร@@ 21319
พระเครื่อง 21307
แม่น 21288
บุญ@@ 21276
�@@ 21273
ห่อ 21272
seekers 21271
International 21269
ฟิน 21269
ไปรษณีย์ 21250
LINE 21246
Mobile 21239
ทาย 21236
ไลฟ์สไตล์ 21222
มี@@ 21210
ฟังก์ชั่น 21198
ดัชนี 21195
ส้น 21186
ยุ่ง 21182
โป่ง 21182
Power 21178
แวร์ 21155
22@@ 21145
เดรส 21137
ob@@ 21134
คาร์@@ 21126
สกรีน 21125
เฟซ 21106
les 21099
โซเชียล 21089
เต่า 21087
ย์ 21071
ริ้วรอย 21058
ra@@ 21054
ยศ 21053
เซนต์ 21044
CH@@ 21039
อัลลอฮฺ 21039
ภิกษุ 21024
สงขลา 21012
ยุ 21010
2019 21005
end@@ 20998
67 20972
มาร์@@ 20960
ลิงค์ 20955
สะพาย 20939
ST@@ 20934
ขจัด 20910
ทว่า 20904
พริก 20881
63 20853
หมาก 20853
่น 20852
งา 20834
มูล 20829
แชมเปี้ยนส์ 20826
28@@ 20824
ig@@ 20819
สิริ 20816
กระจ่าง 20812
นิสิต 20800
ล้มเหลว 20799
เลียน 20794
สหกรณ์ 20793
วง@@ 20792
สังเคราะห์ 20788
กวน 20769
น่าน 20765
age 20746
ana 20713
หมัก 20692
นครศรีธรรมราช 20678
สัญชาติ 20660
เด้ง 20656
ไ@@ 20655
สำเนา 20654
71 20627
มุสลิม 20621
ฟีเจอร์ 20618
ศาสตราจารย์ 20606
จา@@ 20605
Phlebology 20593
83 20574
โปรโมท 20567
ประกาย 20556
ธรรม@@ 20548
ex@@ 20547
ยุติ 20543
แคมเปญ 20538
เ 20532
อวกาศ 20525
Bangkok 20513
เซ็กซี่ 20513
คู@@ 20509
สุภาพ 20483
ดุ 20480
555 20475
ลัง 20475
ol 20473
86 20462
ป้อม 20460
ซีซั่น 20453
มัด 20441
กก. 20438
รั้ว 20421
สำนัก@@ 20420
คุ 20401
ฟิลิปปินส์ 20395
บ่อน 20392
หิมะ 20364
โฟกัส 20360
ขอบเขต 20350
ชู@@ 20350
เทรนด์ 20333
ut@@ 20332
more 20325
พระราชวัง 20323
3D 20322
สุ 20322
เคียง 20312
กราฟ 20302
ทึ่ง 20284
ปริ@@ 20270
ก้อ 20263
วรรณ 20255
ระดม 20239
ie 20230
น้อง@@ 20226
รณรงค์ 20219
สุวรรณ 20218
ฉ@@ 20206
Posted 20179
สวัสดิการ 20178
วัง@@ 20177
วิท 20168
Con@@ 20154
ตำรา 20153
เชิญชวน 20142
้ง 20141
เมอร์ 20138
จู@@ 20134
ang@@ 20125
AT@@ 20121
ปฏิกิริยา 20116
ผื่น 20111
หน@@ 20103
้น 20101
หล่อน 20100
แปลกใจ 20079
สมุทรปราการ 20064
วัฒน์ 20060
แค 20053
ลุค 20049
ลีลา 20039
เต้ 20039
68 20035
บ้านเมือง 20032
ยักษ์ใหญ่ 20028
คบ 20020
เบน 20011
หลุยส์ 20009
Q 20007
เชฟ 20001
เพลิน 19998
ภูมิใจ 19996
ลั่น 19993
สรรพสินค้า 19982
วิเศษ 19975
ภัณฑ์ 19974
ข่มขืน 19971
พลัส 19967
เอ่อ 19960
เข็น 19944
โช 19944
ตัวเมือง 19936
แห่ 19932
เป็น@@ 19911
กล่าวหา 19905
สมรรถนะ 19902
หัด 19891
ชมรม 19885
เอส@@ 19870
ซัน 19861
ปร@@ 19834
ปรากฎ 19818
ำ 19816
หงส์ 19809
สร 19774
รักษ์ 19743
เป็ 19740
de@@ 19730
ผอ. 19716
AR@@ 19706
2549 19697
คุณลักษณะ 19695
iOS 19671
ภ 19669
Ar@@ 19662
สแตนเลส 19657
จม 19655
สุทธิ 19641
โฟม 19637
หลบ 19631
man 19611
33@@ 19605
เวน 19599
ลิน 19595
สี@@ 19590
ชุ่มชื้น 19584
Mar@@ 19583
เฟอร์ 19582
อวย 19564
เสร็จสิ้น 19559
ตึง 19555
ดอย 19538
ผา 19534
60@@ 19532
2007 19522
แขวง 19517
สับสน 19511
หนุน 19505
เผ่า 19505
พระมหากษัตริย์ 19482
เย็บ 19482
ขนมปัง 19479
ควบคู่ 19448
J 19447
อม@@ 19446
Tag 19443
เซ็นเตอร์ 19440
เต 19424
รุม 19413
อู@@ 19407
สามัคคี 19404
เกลียด 19393
หลาก 19382
เงิ 19381
net 19367
Full 19358
ชุบ 19353
เนีย 19350
นรก 19347
ช้อน 19342
White 19338
มุก 19335
จูบ 19331
55@@ 19330
เชีย 19326
โหล 19324
be@@ 19323
เพื่อนบ้าน 19318
ตำหนิ 19310
โค้ด 19309
ข่าย 19303
วาย 19301
สภา@@ 19299
ด่า 19296
ร้ายแรง 19295
เท่ 19284
ปลั๊ก 19283
Se@@ 19282
เดา 19282
ts 19273
โญ่ 19273
ปราบ 19268
ท่อง 19262
Be@@ 19260
ลักษณ์ 19254
ซีรีย์ 19252
เทล 19249
อ้อย 19240
กั 19234
จังหวัด@@ 19231
พ่าย 19231
เคน 19220
ยับยั้ง 19195
ปาน 19189
ไม@@ 19189
vi@@ 19160
98 19156
ประเสริฐ 19152
ยูไนเต็ด 19152
หาดใหญ่ 19151
M8BET 19146
หนทาง 19141
ขวาง 19139
ลำปาง 19127
ok@@ 19116
กง 19116
Tr@@ 19114
บำเพ็ญ 19113
จำพวก 19112
คุกคาม 19105
CO@@ 19102
เรือง 19098
bo@@ 19095
Sp@@ 19091
est@@ 19068
Series 19065
เบส 19061
เเล้ว 19054
แชมพู 19046
ยีนส์ 19039
หนอง@@ 19032
ver@@ 19027
ina 19025
เวียน 19024
ซัด 19021
พกพา 19018
นิ่ม 19017
ประหลาด 19017
แม@@ 19017
A3 19008
up@@ 18999
ฮ่า 18992
เอก@@ 18986
จ.@@ 18979
โกะ 18978
ทะเลสาบ 18969
แกรนด์ 18969
ร้องเรียน 18954
ด์ 18952
แซม 18950
ฤกษ์ 18947
เซฟ 18946
ฉลาก 18910
ตลับ 18909
AS@@ 18906
คัมภีร์ 18902
โช@@ 18897
ปากกา 18894
GB 18883
ริมฝีปาก 18879
96 18851
รั่ว 18809
110 18807
เปอร์ 18803
Ph@@ 18801
ตี@@ 18795
เข@@ 18785
นิว 18782
ฉีก 18769
าว 18752
๊ 18751
92 18744
ยูฟ่า 18738
ชนบท 18736
โซฟา 18728
ลวด 18725
นิคม 18716
ฮอนด้า 18705
อีเมล 18702
สลัด 18689
ปฏิวัติ 18686
เบี้ย 18686
รุ@@ 18681
Game 18678
ปุ@@ 18658
ฟ่า 18654
กาฬสินธุ์ 18641
วิทยากร 18633
พ.ร.บ. 18617
ne@@ 18616
ยุบ 18599
บอย 18597
พบเห็น 18596
360 18576
se 18556
ปริศนา 18556
อน@@ 18556
วัฒนา 18538
ตากอากาศ 18535
ด้าม 18533
อก@@ 18531
กระดาน 18519
บูรณาการ 18519
Le@@ 18506
ดึก 18487
โล่ง 18472
แทรก 18454
คอ@@ 18450
มึง 18447
เอช 18443
อุดตัน 18440
พิทักษ์ 18427
Microsoft 18425
ย้อนกลับ 18424
เปรี้ยว 18417
งด 18414
ตั 18413
ter@@ 18411
q@@ 18397
เคราะห์ 18390
เหงื่อ 18386
ant 18380
ดู@@ 18376
IT 18372
พระยา@@ 18370
สุโขทัย 18367
ปะทะ 18365
ทำนาย 18363
๒๕๖๑ 18353
มู 18344
พาย 18335
สําหรับ 18327
เปื่อย 18326
ik@@ 18320
In 18308
ไวท์ 18301
โ@@ 18293
ip@@ 18286
Forex 18282
ดีโอ 18279
๘ 18274
มาลัย 18262
โจร 18259
กวาง 18252
ถ่าน 18250
เง 18239
สตาร์ท 18233
เค็ม 18228
คาร์ 18226
แสบ 18221
ตาข่าย 18212
70@@ 18211
ธรรมะ 18205
ประปา 18203
จร 18196
ที่ปรึกษา 18194
Filed 18187
พื้นผิว 18185
73 18182
93 18162
ฟิ@@ 18162
ฮีโร่ 18155
อเนกประสงค์ 18147
โรงพยาบาล 18147
อียิปต์ 18129
uk@@ 18125
แฮม 18118
กระสุน 18096
เซ็กส์ 18092
play 18085
อาญา 18061
be 18059
Honda 18058
กระต่าย 18056
36@@ 18047
พระสงฆ์ 18045
og@@ 18031
ee 18028
่า 18027
of@@ 18023
โรงพยาบาล@@ 18012
ah@@ 18010
ผูกพัน 18009
44@@ 18007
๙ 18006
หมุนเวียน 18000
เพียบ 18000
พิษณุโลก 17998
และ@@ 17998
ai@@ 17993
กระทรวงศึกษาธิการ 17990
คิดค้น 17981
แคนาดา 17976
ร์@@ 17970
Love 17964
able 17946
ดีงาม 17943
กบ 17941
ไมค์ 17939
เป็ด 17936
ษ 17905
ลิ้ม 17898
อิฐ 17884
เลี้ยงดู 17883
พ่อค้า 17875
ครัวเรือน 17873
วอล 17869
ปรากฏการณ์ 17868
ท่าทาง 17853
สุราษฎร์ธานี 17852
เอ็น@@ 17828
หิว 17816
เบอร์@@ 17812
ทันใจ 17810
ฝ้าย 17806
โผล่ 17801
โปรตุเกส 17797
าม 17793
ขบวนการ 17785
คืบหน้า 17778
อุ้ม 17773
โร่ 17753
เมฆ 17744
180 17727
Ad@@ 17723
Server 17717
จ้ะ 17709
ไท@@ 17691
pro@@ 17687
ู@@ 17684
AN@@ 17675
เจมส์ 17675
eg@@ 17666
โรแมนติก 17661
บริ@@ 17660
แมง 17658
แล้วแต่ 17653
บาร์@@ 17643
App 17631
หร 17629
เข็มขัด 17628
ter 17619
เอ่ย 17617
ออฟฟิศ 17604
free 17602
Airbnb 17597
แอน@@ 17583
เดอ 17581
78 17572
ฝึกฝน 17558
แท@@ 17556
สะดุด 17548
เพดาน 17535
ห่ม 17530
เทพ@@ 17517
99@@ 17508
เป็นห่วง 17486
เวิลด์ 17480
โสด 17479
คสช. 17475
เมล 17475
ร. 17473
ยินยอม 17468
79 17461
ี่ 17454
แฮ@@ 17453
High 17446
..... 17445
Next 17438
แอพพลิเคชั่น 17435
go 17432
เลวร้าย 17432
อรี่ 17431
เชลซี 17424
เซ่ 17415
35@@ 17413
ir@@ 17413
ต่อรอง 17413
สต์ 17411
โหด 17395
91 17394
ดิจิต 17392
เลว 17390
แคน 17384
88@@ 17376
ยม 17374
พยากรณ์ 17373
76 17372
II 17370
กราบ 17366
โรงแรม 17364
081 17361
IN 17358
มี่ 17358
นุ@@ 17352
แอน 17338
วัคซีน 17325
ตราบ 17319
สน@@ 17314
shop 17290
โน๊ต 17287
AD@@ 17284
Palace 17279
ทวี 17273
รั@@ 17272
อุบลราชธานี 17271
สต@@ 17266
ปลอก 17255
la 17242
แมนเชสเตอร์ 17237
เป็นอยู่ 17230
Co@@ 17228
Air 17213
A2 17205
มั@@ 17191
เทวดา 17191
เซต 17182
วรรค 17181
ชาน 17180
สืบสวน 17175
มั่น 17174
หม@@ 17173
un 17169
ชำร่วย 17167
รั้ง 17166
คัดสรร 17158
ตร@@ 17145
เบรค 17139
com@@ 17134
จู 17133
ช็อป 17132
ล้น 17132
il 17127
แขวง@@ 17126
เสรี 17124
มาน 17111
ach@@ 17110
นิทาน 17108
โกหก 17104
อุดมศึกษา 17101
มิดฟิลด์ 17099
ลาภ 17095
เซ็ต 17093
ลูกทุ่ง 17091
คลิ๊ก 17090
คล@@ 17084
เคร@@ 17084
นิยาม 17081
โง่ 17078
มหกรรม 17069
AC@@ 17067
ด้อย 17066
หมัด 17063
อลูมิเนียม 17045
ยากจน 17041
ad 17031
คีย์ 17029
กลอง 17026
ER@@ 17016
Co 17013
ud@@ 17012
สเตอร์ 17005
สหราชอาณาจักร 17003
ทศวรรษ 17000
ฟัก 16999
...... 16993
ak 16988
สาวก 16987
intl 16984
Un@@ 16974
เซโล 16972
รูเล็ต 16965
City 16964
ด้วยซ้ำ 16963
az@@ 16934
เสรีภาพ 16916
pr@@ 16892
ไฟ@@ 16891
ราชบุรี 16887
100@@ 16883
ลูกหลาน 16883
อุทิศ 16878
ธาร 16871
พระบาทสมเด็จพระเจ้าอยู่หัว 16866
เนย 16863
ค้าขาย 16861
รัน 16861
รก 16850
ov@@ 16847
พ่วง 16835
AI 16831
74 16826
บารมี 16819
โด้ 16819
แท็บเล็ต 16798
พรรณ 16795
แนล 16777
ve 16774
ตอง 16772
ลัก 16764
io 16746
ซิม 16743
MO@@ 16736
��@@ 16736
ara 16734
จริยธรรม 16733
หลวง@@ 16733
เส 16730
บ่น 16728
บึง 16724
ant@@ 16721
ภา@@ 16715
ปาง 16714
เจ้าบ้าน 16706
จุลินทรีย์ 16704
สรรพคุณ 16704
กาญจนบุรี 16698
ถ. 16698
LE@@ 16690
กิ้ง 16689
หนาแน่น 16688
กุหลาบ 16674
รด 16671
คี 16655
ภาพลักษณ์ 16647
อวบ 16647
อนุมูล 16633
ั@@ 16628
ประดิษฐาน 16625
ทร@@ 16624
ธุระ 16611
ไลฟ์ 16611
101 16609
เข 16608
สาธิต 16606
แย่ง 16605
สรรพสิ่ง 16601
นาค 16593
ห่างไกล 16592
af@@ 16577
SE@@ 16569
จักรวาล 16566
วิศวกร 16562
สองสาม 16557
from 16553
สารภาพ 16551
จิ้ม 16536
ไซ 16525
กวาด 16514
US@@ 16513
ตุ@@ 16513
เคาน์เตอร์ 16508
กิเลส 16502
คุ้น 16498
ประพันธ์ 16497
ลอน 16492
45@@ 16480
ขนย้าย 16478
ํ 16469
ปรับแต่ง 16462
A1 16455
๑๐ 16452
ปัง 16438
แฟรนไชส์ 16426
สเปรย์ 16421
ไล 16420
XXX 16409
กั@@ 16401
วร@@ 16390
วารสาร 16386
สุพรรณบุรี 16382
est 16379
Park 16365
ภพ 16365
รีโมท 16364
สตางค์ 16361
ดั่ง 16343
กำ 16341
Design 16335
IC@@ 16335
แร@@ 16331
เปลือง 16329
Am@@ 16322
เกร@@ 16321
สมเด็จพระ@@ 16295
om 16276
นครปฐม 16261
กุ 16259
aw@@ 16258
สัง@@ 16257
หลั่ง 16256
อู่ 16254
เธ@@ 16254
all 16253
เปลือย 16246
โรมัน 16246
ac 16241
นุช 16230
นิ 16215
ทักษิณ 16212
En@@ 16194
บังเอิญ 16193
เดือด 16189
ทุ 16175
อาทิเช่น 16172
เต็ง 16172
มั๊ย 16159
For 16155
More 16151
รัฐสภา 16144
ราด 16144
เวอร์@@ 16144
จิน 16142
ชิน@@ 16138
เม้นท์ 16136
ปัตตานี 16117
บ่งบอก 16116
โภชนาการ 16098
หลบหนี 16093
IT@@ 16092
My 16088
he@@ 16085
อล@@ 16074
มูลนิธิ@@ 16073
int@@ 16069
คาน 16062
เหมือง 16060
‎ 16051
Service 16047
อวด 16047
this 16044
ัน 16043
เจ็บป่วย 16043
ทุ่มเท 16012
ไอ้@@ 16011
Los 16009
จีบ 16004
เจตนา 16003
บั@@ 15996
Day 15994
วิทย์ 15994
ay 15992
อาวาส 15990
หล 15978
กอง@@ 15973
แมตช์ 15966
เขต@@ 15947
กาง 15943
้า 15937
กู@@ 15931
คล 15931
ระบอบ 15930
ong@@ 15927
ป้อน 15927
Gclub 15923
Time 15915
เทอม 15912
สะ 15909
จิตวิทยา 15903
แบ็ค 15898
จืด 15891
แกะสลัก 15889
AL@@ 15887
RO@@ 15885
Re 15880
House 15866
ance 15863
แตง 15854
มุ่งหน้า 15842
ผอม 15839
ตู 15837
สักการะ 15830
AB 15826
ผสาน 15826
California 15804
สุ่ม 15804
THE 15803
ซุ้ม 15798
ya 15791
2548 15789
อุดมสมบูรณ์ 15784
ช้อ 15781
ปีน 15772
ch 15771
รับส่ง 15763
Business 15759
พบปะ 15747
หด 15742
เห@@ 15741
แอฟริกา 15739
สติปัญญา 15738
ครู่ 15735
จ่า 15719
B1 15715
เพชรบุรี 15714
กฏหมาย 15713
สปริง 15709
ra 15696
สินทรัพย์ 15678
สมเด็จ 15676
Up 15665
พอร์ต 15660
กระเจี๊ยว 15659
ภาชนะ 15651
เมาส์ 15647
ว์ 15644
็ 15638
ชิด 15631
พระเยซู 15630
ated 15608
ลัด 15597
สโบ 15583
นิค 15579
อ่อนโยน 15576
ฺ 15562
สเปอร์ 15556
เสนอแนะ 15543
โกล 15542
สืบทอด 15523
AV 15522
องุ่น 15519
แผ่ 15505
่ง@@ 15497
CD 15490
โตเกียว 15472
ใคร่ 15470
เฮาส์ 15469
กระทรวงสาธารณสุข 15461
โน้ต 15454
ฝัก 15448
สะโพก 15445
350 15443
ทูล 15434
Big 15432
ได้เปรียบ 15432
นิกาย 15430
® 15427
ทำเนียบ 15427
ยุ@@ 15417
หลงใหล 15415
ยัด 15412
AA 15408
ระบาด 15379
2006 15372
ปทุมธานี 15370
อนุ@@ 15368
Sony 15367
พระมหา@@ 15366
นิรภัย 15363
จันทบุรี 15356
ไทยแลนด์ 15349
สภาผู้แทนราษฎร 15348
อุดรธานี 15346
ไชย 15335
คณะกรรมการ@@ 15329
แกล้ง 15327
ฟา@@ 15320
แ@@ 15316
ไซต์ 15310
เซลเซียส 15305
ค้นคว้า 15301
อาชญากรรม 15299
ติ้ง 15298
ลิเวอร์พูล 15297
php 15293
็@@ 15291
เลือกสรร 15278
อู 15275
เฮ้ 15265
ยุคสมัย 15262
ธี 15261
แคร์ 15258
โซดา 15256
บ้านเรือน 15250
วิส 15250
Web 15244
สาธารณรัฐ 15240
per@@ 15239
ญาณ 15239
TH@@ 15233
ทุบ 15231
ฟังก์ชัน 15229
ภาวนา 15227
หนุ่มสาว 15218
พิกัด 15207
IC 15206
ชรา 15203
แมงมุม 15200
เบีย 15193
นท์ 15189
Angeles 15187
ราชา 15184
อัน@@ 15183
ฮอต 15180
แซง 15180
าก 15177
รม 15175
48@@ 15172
ตื่นตา 15171
เมน 15171
ธุรกรรม 15165
ซาน@@ 15159
ตัง 15152
อย@@ 15152
นครสวรรค์ 15149
สงสาร 15146
อุดหนุน 15135
hd 15134
จิต@@ 15134
คอม@@ 15132
ล. 15132
โพ@@ 15132
me@@ 15131
มอน 15125
japan 15119
พิก 15119
สถาปนา 15119
แต 15118
เซ็ก 15117
é@@ 15115
Card 15112
เคลื่อนย้าย 15111
ครู@@ 15108
ev@@ 15104
พระนาม 15098
Office 15076
ระวาง 15075
ออกซิเจน 15060
Thai@@ 15048
ati@@ 15040
AM@@ 15039
ใจ@@ 15036
By 15033
Ne@@ 15032
ยำ 15031
ปะ@@ 15029
คริสต์ 15027
ผิวพรรณ 15019
พรหม 15012
เขา@@ 15011
สเต 15007
System 14996
สะกด 14996
Par@@ 14987
แฝง 14976
เนส 14970
หล@@ 14962
สมมติ 14956
เล่ 14952
แบต 14949
AP@@ 14948
หนีบ 14945
มิลลิเมตร 14944
วัตต์ 14928
คว@@ 14915
อง@@ 14912
เหม็น 14911
ชัย@@ 14909
อธิการบดี 14907
Shop 14905
DVD 14901
เมียน 14893
49@@ 14889
กำ@@ 14875
ทอม 14875
ขับไล่ 14874
พิซซ่า 14872
ท้า 14842
ff@@ 14832
โลชั่น 14832
ma 14824
นนท์ 14812
พุทธศักราช 14810
ยากลำบาก 14806
admin 14804
ต้านทาน 14786
ite 14784
Internet 14780
แพ@@ 14778
ปกปิด 14776
williamblakeoto 14775
ตก@@ 14767
ub@@ 14764
ตีน 14760
คลาสสิก 14758
เก็บรักษา 14752
ญา 14749
จิ๋ว 14741
โอ้@@ 14740
เอ็ม@@ 14738
พิธีกร 14732
SP@@ 14729
บอน 14727
ราษฎร 14725
2547 14722
โปโล 14719
ist 14718
j 14710
นึ่ง 14710
กระป๋อง 14702
Previous 14699
แคลเซียม 14696
90@@ 14695
ทัศนคติ 14691
พัสดุ 14691
เร่งด่วน 14690
bi@@ 14689
อ่าว 14686
มอสโก 14680
ni@@ 14677
Sport 14675
เต็นท์ 14674
Store 14669
กู้ยืม 14669
Live 14667
แฟ้ม 14666
ดัด 14657
อัพเดต 14653
อาวุโส 14638
อาร์เซ 14633
ทั่วๆ 14632
รูด 14629
ก้ม 14621
ชีวภาพ 14621
บู 14621
BO@@ 14617
ออกอากาศ 14616
ต่ 14604
ก๋วยเตี๋ยว 14597
ธีม 14595
ค่ำคืน 14592
สาร@@ 14583
sbobet 14582
ภู 14572
สมทบ 14567
lu@@ 14563
วางใจ 14561
80@@ 14560
38@@ 14557
ปราการ 14555
ไถ 14548
อาจารย์@@ 14543
พญา 14541
คุณวุฒิ 14537
ไทม์ 14536
ข้าวโพด 14530
Blue 14529
อิง 14527
tion 14525
UN@@ 14521
แบ@@ 14513
ศอก 14509
พาร์ 14506
ื@@ 14504
ek@@ 14503
อธิษฐาน 14503
Knoxville 14500
iz@@ 14498
ON 14493
แล้ง 14489
te@@ 14488
ซอ 14484
ปีเตอร์ 14484
กติกา 14473
ug@@ 14469
130 14464
เชียว 14460
เวช 14459
พลเมือง 14453
ปราบปราม 14449
เดน 14448
ING 14447
ا@@ 14443
เสก 14432
ตบ 14431
ถม 14430
โมเดิร์น 14430
ขยัน 14425
HP 14416
บอร์ 14403
Mon@@ 14402
เผาผลาญ 14402
พระนคร 14389
โคลน 14385
คลาสสิค 14383
แซ่บ 14371
เกษียณ 14370
มหาสารคาม 14361
Tenneessee 14350
บร 14347
UFABET 14344
อบ@@ 14337
สนิม 14336
โยก 14336
บาเยิร์น 14333
ปลวก 14332
te 14330
จอห์น 14329
ity 14322
56@@ 14321
โคร@@ 14315
EN@@ 14312
ีย์ 14311
โพธิ์ 14301
for@@ 14300
พระราชดำริ 14300
มาส 14299
เลี่ยง 14296
เชื้อสาย 14293
คาว 14292
br 14282
out 14279
par@@ 14279
โซล 14269
เปเปอร์ 14268
News 14257
re 14251
ราตรี 14244
นส์ 14241
77@@ 14240
สกี 14230
→ 14226
ทาส 14210
่อ 14210
Star 14195
ยุง 14195
อ้อ 14193
แฝด 14190
โรนัลโด้ 14186
ยุทธ 14185
น้อม 14184
สั่งการ 14184
แล@@ 14177
พุ 14168
อีเมล์ 14160
à¸@@ 14155
มน 14139
สูท 14121
46@@ 14109
คณะ@@ 14108
เศรษฐี 14105
dis@@ 14098
ปกคลุม 14092
แฟนเพจ 14090
ควบ 14086
AC 14083
res@@ 14073
ถัก 14073
IS@@ 14072
จูงใจ 14071
พันธุกรรม 14069
ิน@@ 14068
IP@@ 14066
โทร@@ 14064
โญ 14059
เดล 14057
เดอะ@@ 14054
ฐ@@ 14050
สรรหา 14050
เคลียร์ 14049
em 14040
Auto 14037
art 14036
สวีเดน 14035
หั่น 14034
ประจวบคีรีขันธ์ 14030
ขย่ม 14026
คอร์ส 14026
กระทะ 14024
สาด 14020
เกลียว 14018
ท่า@@ 14017
Social 14016
เพลย์ 14013
ago 13997
รูม 13993
นิวยอร์ก 13988
พ่ายแพ้ 13984
ps 13977
ท้องที่ 13974
ธน@@ 13969
มาสเตอร์ 13968
โปร่งใส 13961
ard 13941
ว่าว 13928
คิม 13927
ES@@ 13914
เปิดใจ 13908
สำราญ 13899
ปน 13898
มุ่งหมาย 13897
to@@ 13893
ล่อ 13888
ชดเชย 13884
125 13879
จำ@@ 13874
โจทก์ 13862
เหงา 13857
โหวต 13857
ธนบุรี 13856
นราธิวาส 13847
ที่@@ 13845
เยน 13835
Best 13830
Ex@@ 13820
› 13818
นวล 13813
ON@@ 13804
มาร์ก 13801
มัว 13799
มอ@@ 13795
เฉย 13791
tic 13780
คี@@ 13768
MA@@ 13766
จำนำ 13762
« 13759
เมทัล 13757
ka 13751
Play 13746
แปะ 13742
กระทรวงมหาดไทย 13729
oo@@ 13720
ผัง 13719
สเต@@ 13715
กาก 13714
เนชั่น 13710
ทอง@@ 13706
ลำ@@ 13702
ปร 13683
ber@@ 13681
Me@@ 13676
ศิลา 13676
ดะ 13666
หุบ 13666
Ltd 13664
SO@@ 13659
ออกเสียง 13658
ทึบ 13657
มากน้อย 13657
แม่ค้า 13653
ษ@@ 13651
ปะ 13641
เทนนิส 13637
box 13626
ชิพ 13623
Gold 13616
ยะ@@ 13616
ใ@@ 13613
ซิน 13612
โนะ 13608
ลึกลับ 13607
สร@@ 13607
เบี้ยน 13601
๊ก 13601
สิงโต 13600
ทะ@@ 13598
ชี@@ 13595
ตั@@ 13593
มินิ 13590
ทัศนียภาพ 13589
ทรัล 13588
เฮ 13584
อุตรดิตถ์ 13581
land 13580
vs 13579
Data 13574
นก@@ 13574
จำต้อง 13570
แกร่ง 13567
Top 13565
บ่าว 13565
ห้วย 13561
mail 13560
ีย@@ 13560
br@@ 13558
เลก 13554
สกลนคร 13553
ซื 13552
ฟิสิกส์ 13547
คอลัมน์ 13531
บอกเล่า 13530
กลอน 13525
าร@@ 13525
เวสต์ 13522
อ้า 13519
หยอด 13518
แพลตฟอร์ม 13518
มณี 13516
อากาศยาน 13512
ว่าจ้าง 13510
เบิก 13510
ดีล 13509
TO@@ 13504
ซิส 13499
sk@@ 13497
OS 13489
ไลท์ 13489
ผลัด 13486
จุ@@ 13485
หลวงปู่@@ 13484
if@@ 13482
วรรณกรรม 13475
ศร 13472
พุ่ม 13468
โคร 13460
ภูมิปัญญา 13453
เอาใจใส่ 13453
รัตน@@ 13452
ปฎิบัติ 13451
ณี 13448
วอน 13448
ริเริ่ม 13443
กราฟิก 13442
ปู่@@ 13442
ละออง 13442
size 13440
ำ@@ 13435
Toyota 13425
วร 13425
แชม 13421
นิก 13409
ยูเครน 13409
บางกอก 13407
ลั@@ 13398
ส.ส. 13398
ลัทธิ 13382
อฟ 13382
ร่ำรวย 13379
หัวนม 13379
ลอนดอน 13375
แกรม 13372
ปะการัง 13366
ลุง@@ 13365
อุปถัมภ์ 13361
นิวเคลียร์ 13353
แล้วเสร็จ 13351
เขมร 13348
A7 13343
set 13342
GPS 13335
ธร 13330
ชาร์ 13329
ขิง 13320
เก็บเกี่ยว 13320
มิตรภาพ 13319
ลุ่ม 13313
ล้า 13312
UK 13311
เดย์ 13311
Red 13310
เอน 13310
mon@@ 13308
การ์@@ 13299
ไฮ 13292
มิด 13290
ประชา 13277
โดเมน 13266
Life 13255
แช@@ 13254
เกียว 13252
เพจเฟส 13251
ao 13249
De@@ 13248
ต์@@ 13246
ชิป 13245
ประเทศสหรัฐอเมริกา 13239
นิว@@ 13229
โบว์ 13225
ung 13224
SD 13223
ขัดขวาง 13215
เฉพาะเจาะจง 13214
พอง 13207
sex 13202
แม็ก 13198
ปั้มไลค์เพจ 13194
ซื่อ 13193
ทำ@@ 13192
รัส 13191
จ๋า 13187
ฆ@@ 13184
วิกฤต 13184
น้ำใจ 13175
م@@ 13170
no@@ 13167
ติว 13165
เพล 13162
Music 13153
พัฒน์ 13153
ous 13150
บูรณะ 13150
ซุ@@ 13143
47@@ 13140
บังคับบัญชา 13139
เซน@@ 13128
ประหลาดใจ 13127
ตอก 13125
จง@@ 13122
ช. 13111
lamblia 13107
มาร์ค 13107
ริ้ว 13106
ib@@ 13105
Fi 13100
ขับร้อง 13100
อิหร่าน 13098
กิโล 13095
อุป@@ 13093
หมั่น 13091
ดวล 13086
der 13082
คาร์บอน 13082
ปม 13080
ซอส 13077
ขาดแคลน 13051
เบ 13046
เออ 13045
อภิ@@ 13040
คาร 13038
เปา 13035
นิวซีแลนด์ 13025
ลิงก์ 13025
ยว 13016
อัญมณี 13015
เก็ต 13009
อ่าว@@ 13000
เผลอ 13000
เบท 12999
43@@ 12992
ติดใจ 12989
ไน 12983
ท์@@ 12979
ซอย@@ 12976
อาเจียน 12969
Li@@ 12959
สอย 12958
หละ 12958
หน้า@@ 12956
แกนนำ 12953
เก๋ง 12946
с@@ 12932
แก่น 12931
Manager 12927
140 12925
TR@@ 12925
สิ้นเชิง 12923
ตุรกี 12915
สับ 12911
ฟอร์@@ 12910
160 12909
color 12905
เจ้าพนักงาน 12901
ทร 12898
นั@@ 12897
เลสเตอร์ 12893
สถานี@@ 12889
org 12885
ราชอาณาจักร 12880
ัง 12879
ผัน 12875
วัฒนะ 12874
Br@@ 12873
ขำ 12869
กลับคืน 12866
จักรพรรดิ 12862
หลอกลวง 12862
ดุล 12860
Post 12839
เทอร์ 12836
ล์ 12832
เออร์ 12831
ราบรื่น 12830
ปานกลาง 12827
เวท 12826
ปาก@@ 12823
Cor@@ 12821
แบงค์ 12813
มิส 12807
that 12800
ash@@ 12799
66@@ 12796
บร@@ 12786
เบิร์ก 12785
ดอท 12776
สวัสดิ์ 12774
เฉียบพลัน 12773
ร้องขอ 12766
แท็ก 12765
แอป 12765
รอยัล 12764
ทักทาย 12762
ind@@ 12761
เซอร์@@ 12756
ดอง 12751
เปน 12748
วิสัยทัศน์ 12747
ปริมณฑล 12739
สุข@@ 12734
กก 12733
ซิล 12731
ประหาร 12731
ห้อย 12730
เผ็ด 12729
เอียง 12725
ยอง 12724
เซ็นเซอร์ 12724
สติ๊กเกอร์ 12716
สตูดิโอ 12716
แม่พิมพ์ 12707
โรย 12704
ลพบุรี 12692
ประท้วง 12679
eng@@ 12677
กีตาร์ 12674
ทิ 12668
ควาย 12664
ชะ@@ 12657
ธิ@@ 12657
รูปลักษณ์ 12656
สไลด์ 12652
เหม@@ 12652
จั@@ 12649
้ว 12644
Network 12643
อาหรับ 12643
ซิงเกิล 12641
พุทธศาสนา 12638
เพจฟรี 12624
Cloud 12623
ยานพาหนะ 12623
สมมุติ 12623
บุคลิก 12621
สัน@@ 12620
เกรง 12616
งค์ 12612
รุ้ง 12612
ท. 12607
เฉลิมฉลอง 12607
เมย์ 12606
อุบล 12604
อร 12603
Note 12602
car@@ 12601
แอล@@ 12601
ou@@ 12599
เนื้อเยื่อ 12598
เอสซี 12598
end 12590
37@@ 12589
Mini 12587
ล่วง 12585
ans 12583
ชัวร์ 12579
รังสิต 12576
รอคอย 12575
เปล 12573
แด@@ 12571
Group 12568
เล็ง 12566
นิดเดียว 12565
SH@@ 12558
ผลิ 12553
ซื่อสัตย์ 12543
กรีก 12541
д@@ 12524
สัญจร 12524
พนม 12505
ฤ@@ 12497
สว@@ 12493
yl@@ 12488
su@@ 12484
แพะ 12477
แก่ง 12468
ปอง 12467
LCD 12461
เท่าเทียม 12454
ราชัน 12448
พลเรือน 12442
พาน 12442
บรรพบุรุษ 12432
โฟ@@ 12430
อริ@@ 12429
พิชิต 12421
กอ 12420
โคจร 12416
your 12412
ES 12408
พอล 12408
ตรงกันข้าม 12405
เกล็ด 12404
pm 12402
и 12396
ens 12388
เรน 12387
ค. 12382
ut 12379
นูน 12378
ide 12375
new 12375
รำคาญ 12372
กรีน 12370
พิทยา 12366
ผนึก 12362
รุ่งโรจน์ 12359
คล้ายคลึง 12343
ผบ. 12341
เย 12339
ไทย@@ 12335
สันติ 12334
รพ. 12332
Review 12324
จารึก 12311
Bar@@ 12310
แก๊ง 12307
ตื่นใจ 12305
เคล@@ 12287
ฟอร์ด 12283
ฉายา 12280
๐ 12280
เยาว์ 12278
ไก 12278
ไลค์เพจ 12269
สัมฤทธิ์ 12268
แค้น 12266
ปราจีนบุรี 12263
ทัก 12261
ah 12253
วั@@ 12252
B5 12251
For@@ 12251
เซรั่ม 12251
ถ่ายทำ 12247
ast@@ 12238
ไฟเบอร์ 12234
ขุน@@ 12232
BMW 12230
นางสาว 12230
คอร์@@ 12224
AR 12223
ตาล 12216
ทางออก 12215
ใช้สอย 12212
ราษฎร์ 12206
เวร 12203
แบก 12203
วิชา@@ 12196
ลึกซึ้ง 12193
หยาบ 12191
บุรุษ 12184
คิง 12183
ค์ 12180
Drive 12172
sc@@ 12171
สระบุรี 12167
โตะ 12167
AL 12166
ath@@ 12165
เซิร์ฟเวอร์ 12157
อัพเกรด 12155
เรย์ 12155
รุ่งเรือง 12152
ซีรี่ย์ 12142
Te@@ 12141
อัยการ 12139
พระราชพิธี 12136
กระทรวงการคลัง 12134
ประกบ 12131
เทค 12130
LO@@ 12129
คึกคัก 12128
สูญหาย 12125
เบ็ต 12122
จิตวิญญาณ 12117
mar@@ 12114
ino 12111
คอก 12107
แหก 12107
Ma@@ 12102
On 12102
พรบ. 12099
เหยียบ 12096
ขด 12095
ex 12091
ตำรับ 12086
มะม่วง 12085
ช้อป 12079
กาม 12076
ไกด์ 12075
Master 12074
ทะเลาะ 12072
Marketing 12070
คาเฟ่ 12070
ประมาท 12067
แฟลช 12066
ry 12053
โว@@ 12052
วอลเลย์ 12049
post 12043
การ์ 12037
มาร 12036
รัศมี 12036
View 12034
เรียล 12031
สมรรถภาพ 12030
School 12025
เปื้อน 12022
na 12014
เเต่ 12012
ดิ้ง 12010
Core 12007
เสด็จพระราชดำเนิน 12006
Watch 12004
สำ@@ 12001
พระราชา 12000
เลย์ 11999
A5 11998
ไซด์ 11993
Call 11992
แป้น 11992
แอร์@@ 11990
SC@@ 11987
Car 11986
แปลกใหม่ 11986
ปฐม 11984
EN 11983
่ว 11983
สรรเสริญ 11977
เตย 11973
ภาคี 11969
ทั่วถึง 11966
2004 11960
Asia 11958
พระชนม์ 11955
39@@ 11953
ure 11951
led 11947
รื้อ 11941
ian 11939
จริงใจ 11939
สารพัด 11936
หนองคาย 11936
แอปเปิ้ล 11928
ร่องรอย 11927
ประเดิม 11925
เยอะแยะ 11922
ชู้ 11921
OR@@ 11915
ทู@@ 11915
กายภาพ 11901
Qu@@ 11895
ดิโอ 11894
รัฐวิสาหกิจ 11894
คว่ำ 11893
ปู@@ 11886
و@@ 11883
ดูดซึม 11881
อับ 11872
™ 11872
รวด 11870
สังเกตุ 11865
เปล่ง 11864
ator 11852
ฮาร์ด 11852
คน@@ 11849
ผู 11846
แบ็ก 11845
นุ่มนวล 11839
bitcoin 11831
สห@@ 11829
เน่ 11829
เกษตรกรรม 11821
ใหญ่โต 11821
ชาม 11816
วัล 11815
57@@ 11809
กวี 11805
ทรมาน 11802
34@@ 11801
่น@@ 11801
ชุม 11798
2546 11796
คมนาคม 11796
ชดใช้ 11795
เงินทอง 11780
ตื้น 11768
เก๋า 11763
เฟรม 11759
นิวส์ 11758
็ก 11751
สุรา 11750
way 11748
หัวแม่มือ 11748
เดวิด 11748
url 11746
als 11739
เกต 11736
โว 11736
ือ 11735
ด้าย 11727
ทุ@@ 11726
กระเช้า 11715
เอื้อ 11714
โดม 11713
รอ@@ 11710
สงเคราะห์ 11705
เกาหลีเหนือ 11705
สวิง 11701
หย่อน 11701
ขอร้อง 11700
ทายาท 11699
แพร 11699
ธิ 11696
ISO 11690
ซีดี 11689
คัดค้าน 11683
แพน 11683
น่อ 11681
ัน@@ 11680
นิต 11679
ไมเคิล 11678
Limited 11677
ell@@ 11676
เติมเต็ม 11669
พัน@@ 11664
ment 11663
ซีน 11663
เทรนเนอร์ 11654
 11653
บริ 11649
พะเยา 11644
ich@@ 11633
200@@ 11626
ภักดี 11617
ค็อก 11612
ลิส 11612
เบ็ด 11609
บอด 11605
บาล 11604
ดก 11603
สป@@ 11602
จอม@@ 11601
เสวนา 11601
ลัย 11597
โทรคมนาคม 11595
เชื้อรา 11593
ชาติ@@ 11588
ครม. 11580
und@@ 11578
ล่าช้า 11570
แมน@@ 11568
168 11567
ไทร 11560
ica 11558
king 11558
ow@@ 11557
ถนอม 11556
CO 11552
รอบคอบ 11550
โฆษก 11545
32@@ 11543
ซีล 11539
ทยอย 11537
ัย 11537
เวิร์ค 11537
Control 11531
ีน 11527
บัน@@ 11525
อุปการะ 11524
สตูล 11523
รากฐาน 11521
คล้อง 11520
ไตร@@ 11518
พระนาง@@ 11515
เฉยๆ 11508
เชน 11506
กี@@ 11505
บัว@@ 11503
ออร์@@ 11500
เทอร์@@ 11499
Management 11498
พิจิตร 11497
แม่ฮ่องสอน 11495
ป่าไม้ 11491
๋ 11491
วิน@@ 11490
–@@ 11490
YouTube 11489
ดุจ 11487
นิติบุคคล 11485
ฝ@@ 11485
วิวัฒนาการ 11485
เน่า 11481
в@@ 11480
สปีด 11480
ی@@ 11479
จ่อ 11475
ห้วย@@ 11465
ย้อม 11453
ไร@@ 11447
เลี่ยน 11445
โถง 11444
Per@@ 11438
พระคุณ 11438
เลขานุการ 11436
Set 11434
ชะตา 11434
ซิง 11428
แก@@ 11426
ปลดปล่อย 11425
SEO 11422
ปลื้ม 11420
ty 11417
Royal1688 11413
ary 11413
450 11410
นู@@ 11409
Video 11403
ภาคภูมิใจ 11400
แน@@ 11399
เบร@@ 11397
li 11395
ne 11394
วิทยาลัย@@ 11393
gr@@ 11387
เรียน@@ 11386
ก้อง 11382
เป๊ะ 11379
พ่อ@@ 11378
อัศจรรย์ 11374
หล่น 11371
ap 11369
อาร์เซน 11368
สถาปนิก 11367
ควง 11361
เอล@@ 11359
Bi@@ 11352
อด@@ 11352
Beauty 11349
เทพเจ้า 11346
หลา 11345
Amazon 11343
รำลึก 11342
วงษ์ 11341
เผือก 11340
son 11339
ออก@@ 11339
ไหลเวียน 11336
สิริ@@ 11332
โส 11330
สโตร์ 11324
สิน@@ 11322
Sc@@ 11320
Product 11319
พึ่งพา 11313
เว 11311
SM@@ 11310
โพรง 11307
ลาเจน 11306
Green 11305
ทั@@ 11301
มิวนิค 11298
Link 11296
ลอ@@ 11293
ปั@@ 11290
ทด 11288
สังกะสี 11287
2005 11286
โกน 11286
หนี้สิน 11282
อินทรา 11281
เก้ 11281
our 11279
เซเรีย 11279
ลิ 11278
Or@@ 11275
ฮ 11271
min@@ 11270
คะ@@ 11270
สุวรรณภูมิ 11270
ยิว 11269
AV@@ 11268
Book 11264
Gu@@ 11261
220 11258
ลิฟท์ 11251
ปารีส 11250
ไบ 11249
จำแนก 11248
ชิล 11247
ยี่กี 11247
ประเทศชาติ 11246
Wi 11245
อุโมงค์ 11243
ABS 11240
เกราะ 11235
MB 11234
ks 11229
pl@@ 11227
ึ@@ 11226
ซอก 11220
ปลูกสร้าง 11220
แบ 11216
Size 11209
view 11208
ชีส 11205
กกต. 11204
ธิดา 11202
สันติภาพ 11202
แม็กซ์ 11198
Phone 11197
ชัยภูมิ 11197
ฟาก 11194
หยก 11193
SME 11190
ว่ 11190
มั่งคั่ง 11182
ting 11179
เช็ก 11179
pre@@ 11178
ด้ 11175
พระพุทธ@@ 11173
เนเธอร์แลนด์ 11173
ต้ 11172
เศรษฐศาสตร์ 11172
Resort 11166
ED 11162
พราน 11161
คาง 11159
Pre@@ 11158
มิต 11157
ข้าวของเครื่อง 11155
all@@ 11153
ลอด 11153
กระผม 11144
Min@@ 11133
ru 11133
คั@@ 11132
นนทบุรี 11124
ลุ@@ 11122
Part 11121
To 11121
กระทรวง@@ 11117
ภูมิ@@ 11117
Casino 11116
AIS 11115
ปารี 11112
สันนิษฐาน 11111
999 11108
its 11104
ดั@@ 11092
ลิป 11091
21@@ 11089
ถ้อยคำ 11089
ประชา@@ 11087
มั้ง 11086
กระทง 11085
พราหมณ์ 11085
58@@ 11081
Su@@ 11077
เครน 11077
Food 11069
จุก 11068
Light 11063
ID@@ 11053
มนุษยชน 11052
มั่ง 11051
ลำพัง 11047
ปล้น 11040
มน@@ 11037
we@@ 11034
เมส 11015
TI@@ 11011
นัท 11011
จิน@@ 11009
ans@@ 11006
๓๐ 11003
เดท 11001
the@@ 10997
ติ่ง 10997
น้ํา 10997
แคมป์ 10992
กระตุก 10979
а@@ 10977
ลอบ 10976
105 10973
Gr@@ 10967
EL@@ 10964
แพร่กระจาย 10964
ICD 10958
พะ@@ 10956
รักษาการ 10953
มองดู 10950
แบง 10950
ไอศกรีม 10950
อาตมา 10949
จ้อง 10948
ill@@ 10942
หลวงพ่อ@@ 10942
เซ็ท 10942
Dis@@ 10938
ul 10933
thai@@ 10929
108 10919
๑@@ 10918
ปล้ำ 10917
content 10916
อย่างเช่น 10915
TE@@ 10913
This 10907
ทับทิม 10907
AB@@ 10906
Show 10905
หิ้ว 10905
ร่อน 10904
ชีวิตชีวา 10899
ร้าง 10899
สวรรคต 10898
UV 10894
ew@@ 10878
MRT 10876
มหาลัย 10875
เง@@ 10864
Huawei 10863
IS 10860
59@@ 10859
ประกาศนียบัตร 10856
คุกกี้ 10855
บรรทัด 10851
สลัก 10845
ฟี@@ 10842
๒๕@@ 10834
att@@ 10831
English 10828
เวอร์ชัน 10828
สนอง 10826
ศิลปวัฒนธรรม 10825
Engine 10818
หนวด 10814
my 10810
2542 10809
พอก 10809
หล่ะ 10809
ro 10808
อาคาร@@ 10806
ห์@@ 10799
，@@ 10796
เพชรบูรณ์ 10795
โจว 10794
201@@ 10792
ติน 10792
หลิน 10791
เท็จ 10785
จัน 10784
มัน@@ 10782
ae 10780
สะใภ้ 10779
มะขาม 10778
ن@@ 10774
เชิ้ต 10762
ดาว@@ 10759
เม็กซิโก 10759
do 10758
worming 10758
ทวีป 10755
นั 10755
170 10754
โมเลกุล 10753
ชุ่ม 10750
ี่@@ 10747
ผู้@@ 10746
รังสิ 10745
ลำพูน 10745
Technology 10742
ช์ 10742
กระปุก 10741
© 10739
เข้มงวด 10735
๊ด 10735
ตามใจ 10734
Cream 10724
เมอร์@@ 10720
แห่ง@@ 10718
Com@@ 10716
ซุปเปอร์ 10716
á@@ 10711
เวป 10711
คณาจารย์ 10710
★ 10710
ating 10709
ฐ 10707
ion 10706
ass@@ 10702
ลง@@ 10702
000@@ 10697
แอนติบอดี 10697
น.ส.@@ 10696
บาส 10696
แคว้น 10694
2540 10693
ตอกย้ำ 10692
สาทร 10690
พรี 10686
ประถม 10683
เจ้าชาย@@ 10681
แซ@@ 10681
Bluetooth 10679
video 10678
ยะลา 10673
google 10669
ประณีต 10669
หัวหอก 10667
ano 10663
กองทัพ 10658
อืม 10658
ฮอลิเดย์ 10655
е 10654
คํา 10650
แฟร์ 10650
ชุมพร 10647
สูญ 10642
คลีน 10640
คติ 10638
Media 10633
Man@@ 10631
บล@@ 10631
สึ@@ 10631
Japan 10630
ศาล@@ 10630
การบินไทย 10629
ประจักษ์ 10629
รั 10628
ด้าว 10625
โกดัง 10623
real 10621
ข้น 10621
่ว@@ 10621
เฮ้@@ 10620
นว@@ 10618
was 10613
มังสวิรัติ 10612
โปแลนด์ 10607
เคร 10601
ta 10599
อาณาเขต 10599
จตุจักร 10595
โรงเรียนบ้าน@@ 10595
กัล 10587
เกร็ง 10575
พรหม@@ 10574
que 10573
แชท 10573
แต่ทว่า 10573
MP3 10571
PA 10568
AT 10567
มารยาท 10566
ปฏิ@@ 10563
นานาชาติ 10560
เรท 10549
น็อค 10545
Pr@@ 10542
ระนอง 10539
ist@@ 10538
มลพิษ 10537
คิว@@ 10530
ada 10527
เวล 10521
หย@@ 10517
มูริน 10516
ical 10515
คาถา 10512
เจริญ@@ 10508
4G 10505
ในหลวง 10505
แวดวง 10504
อเล็กซ์ 10502
โดด 10496
เชิงกราน 10492
bidding 10489
สาหร่าย 10488
คริสต์ศตวรรษ 10487
วิกฤติ 10486
TripAdvisor 10483
ฉ่ำ 10482
แวว 10480
ปาล์ม 10477
รมว. 10470
พลาย 10461
ish@@ 10460
ค่าย@@ 10460
พระธาตุ 10458
กซ์ 10451
ปตท. 10450
อัธยาศัย 10449
กลืน 10447
06@@ 10446
คำ@@ 10442
บังเกิด 10440
อั 10440
au@@ 10436
เพียร 10435
Ap@@ 10431
"@@ 10424
ชุ่มชื่น 10423
300@@ 10419
ds 10418
ตักเตือน 10418
ทริ@@ 10418
เรซ 10418
แอมป์ 10418
086 10415
Bank 10407
งี้ 10407
น้ำพริก 10406
ลำลอง 10398
อึดอัด 10398
เบิ้ล 10397
เคาะ 10393
ล้อมรอบ 10391
ฟู@@ 10390
ตัว@@ 10375
ฉนวน 10370
He@@ 10369
ชีววิทยา 10361
El@@ 10359
นิเวศ 10359
ue 10358
เคร่งครัด 10355
ฒนา 10353
มุข 10353
เป้น 10343
Ro@@ 10340
aya 10339
มหาวิทยาลัยธรรมศาสตร์ 10339
2545 10334
990 10331
ลูกน้อง 10326
มาร์เก็ต 10324
ยันต์ 10315
ทรี 10314
ศิริ@@ 10311
Code 10310
บั 10307
เสียสละ 10302
แร่ธาตุ 10302
د@@ 10299
สทช. 10295
คร่าว 10292
๐๐ 10292
ธน 10289
อาลัย 10288
index 10285
ไบ@@ 10285
ว. 10284
Mac 10282
ดีเยี่ยม 10278
วั 10274
ชอบธรรม 10271
บะ 10271
EC@@ 10267
ชาร์ต 10267
พั@@ 10266
ทุเรียน 10264
น้า@@ 10264
นํา 10255
ไน@@ 10253
สภ. 10248
ถ้วน 10242
ก้ 10239
ขุนนาง 10239
ภัทร 10239
Mr 10238
กรรมวิธี 10237
พี่เลี้ยง 10237
้า@@ 10235
Comments 10234
จรด 10233
สาหัส 10232
ge 10231
ฮาร์@@ 10229
เทน 10220
ตะแกรง 10216
บ่งชี้ 10212
สาบ 10209
บิต 10208
กำกับดูแล 10207
ฝึกหัด 10204
ตกค้าง 10203
เฒ่า 10202
ตำ 10199
บัน 10195
Camera 10193
มดลูก 10191
ey@@ 10190
เฉด 10179
ทั้งๆที่ 10171
da 10170
Cr@@ 10168
คั่ว 10167
กิน@@ 10166
ok 10164
т@@ 10163
less 10162
NO@@ 10160
ซิน@@ 10159
ซากุระ 10158
ng 10156
เต็มตัว 10153
เบล@@ 10147
หมอ@@ 10144
เทร@@ 10141
จับ@@ 10139
天@@ 10139
ปล@@ 10138
089 10135
ภูมิอากาศ 10135
คุณประโยชน์ 10131
เบน@@ 10130
สมการ 10128
Sch@@ 10124
ธนู 10123
Me 10122
ไชย@@ 10122
ส.@@ 10119
BR@@ 10117
้อ 10112
คลา 10109
ale 10101
แม็ค 10099
บางกะปิ 10094
แคปซูล 10092
พรรค@@ 10091
ชน@@ 10081
หย่า 10079
per 10077
อิจฉา 10071
โรด 10071
ศีลธรรม 10068
หุ 10068
เคือง 10058
ins 10057
พระภิกษุ 10056
Class 10055
bit 10054
สุขุมวิท 10054
Season 10052
คราม 10051
แม่ง 10050
วาจา 10049
use 10045
พระนครศรีอยุธยา 10045
ฮี 10044
คลาส 10042
ระเหย 10042
ยิป 10035
ฏ@@ 10032
้อ@@ 10027
ov 10024
สกาย 10024
day 10023
กระดุม 10023
กระเด้า 10022
ติก 10022
Kh@@ 10020
ไพ@@ 10017
เตอร์@@ 10016
ens@@ 10015
กรา@@ 10015
ดาวรุ่ง 10015
2535 10012
La 10012
คิ 10010
750 10009
อนุภาค 10006
เตียน 10006
ยีน 10005
หนาม 10005
โคล@@ 10003
USD 9998
ت@@ 9994
เอาท์ 9994
ー@@ 9993
พำนัก 9988
สัมภาระ 9988
วี่ 9985
สิง 9984
เลียบ 9983
เทศมนตรี 9982
ตะโกน 9981
ต่อเติม 9981
เตี้ย 9978
แทรกซ้อน 9978
ิง 9974
We@@ 9973
ata 9973
สุกร 9973
็ค 9973
อ่างทอง 9972
ley 9971
เร้าใจ 9970
้ม 9962
65@@ 9959
Type 9959
ทธ 9955
ors 9952
ton 9942
ฉ 9941
Bo@@ 9938
May 9938
ไมโครเวฟ 9937
รัว 9935
Page 9933
app@@ 9932
SBO 9928
กำแพงเพชร 9928
พระกรุณา 9921
เลอ 9907
book 9901
forex 9899
room 9897
ตรว. 9897
นทบุรี 9892
ไฟแนนซ์ 9892
เพ็ญ 9891
ดีเซล 9890
คล็อปป์ 9887
บ้านหนอง@@ 9881
ur 9880
๑๕ 9879
ane 9878
แต@@ 9877
ชำรุด 9876
สยามบรมราชกุมารี 9876
75@@ 9871
จังหวัดชลบุรี 9870
นิสสัน 9868
ey 9864
คริสต์มาส 9860
กับข้าว 9856
ost@@ 9855
จักรพรรดิ@@ 9854
ซีเรีย 9850
2544 9847
CC 9846
เอน@@ 9841
้น@@ 9839
วาส 9838
มหาราช 9834
รัชดา 9834
ราชย์ 9834
แว@@ 9834
แจ่ม 9831
กลั่น 9828
ฌาน 9827
Mo@@ 9825
ประชาคม 9825
Search 9824
วงศ์@@ 9818
จัน@@ 9817
พีซี 9815
สุสาน 9811
tic@@ 9810
อนึ่ง 9809
สังขาร 9807
html 9806
สำนวน 9806
AN 9805
ลิค 9803
ย์@@ 9802
ว่าน 9800
ทนายความ 9799
ขับถ่าย 9797
เมน@@ 9793
ภัยพิบัติ 9791
บาตร 9790
บอล@@ 9789
art@@ 9788
นางฟ้า 9785
อร์@@ 9785
มิ่ง 9784
ตุส 9782
uc@@ 9780
วม 9778
โลตัส 9778
เคี้ยว 9777
page 9776
พุง 9771
เหล@@ 9771
แนน 9768
กรุงศรีอยุธยา 9767
อรุณ 9766
ประ 9765
ิด 9764
บริบท 9763
ies 9761
ب@@ 9757
เชอร์ 9757
บุฟเฟ่ต์ 9756
ร็อค 9750
งอ 9747
’@@ 9746
ไนท์ 9745
หง@@ 9744
ลูบ 9742
2543 9740
views 9740
ว้าว 9740
รับสั่ง 9739
สเต็ป 9737
สยาม@@ 9736
HO@@ 9735
รัฐประหาร 9735
ฆาตกรรม 9727
ung@@ 9725
หญิง@@ 9725
เปี่ยม 9724
เบลเยียม 9723
สั@@ 9721
els 9713
ใจดี 9712
ONE 9711
ประสูติ 9709
Grand 9707
SE 9702
ence 9701
can 9699
อาณาจักร@@ 9696
ปฏิบัติการ 9692
ลี้ 9691
Man 9690
รุ 9689
เนม 9689
ดม 9686
ทุกสิ่งทุกอย่าง 9686
นวนิยาย 9684
่า@@ 9680
plus 9677
ทะ 9677
и@@ 9676
กอ@@ 9675
เอ็ง 9674
ชาญ 9673
ข้างเคียง 9672
ยั้ง 9667
gclub 9666
แพ็คเกจ 9661
240 9660
CPU 9660
ผ้าใบ 9657
นิมิต 9655
ปรกติ 9653
สกิล 9652
โซลูชั่น 9647
แบล็ค 9641
102 9640
ณ์ 9639
พระธรรม 9639
kh@@ 9634
ฟีฟ่า 9634
At@@ 9633
เมื่อย 9633
ซัม 9630
rom@@ 9625
ศุภ@@ 9625
๑๒ 9624
ann@@ 9618
สุร@@ 9616
คอลลาเจน 9607
เอี่ยม 9606
กระชาก 9604
พาร์ท 9603
คริสเตียน 9601
ฝอย 9599
นม. 9597
หื่น 9597
ศา 9595
บรา@@ 9594
มารี 9590
อ่า 9587
รับ@@ 9586
MP 9584
ปฏิชีวนะ 9581
มหาสมุทร 9577
Ac@@ 9576
ade 9575
กรณ์ 9572
บรรเลง 9571
จับตามอง 9570
เก้น 9570
ef@@ 9568
อนุสรณ์ 9568
นัง 9565
รินทร์ 9564
ศิ@@ 9564
Off 9562
2003 9561
ยิ@@ 9560
AP 9553
กัก 9552
Application 9551
ard@@ 9550
Art 9547
PVC 9547
ซึ้ง 9546
Max 9545
เร้า 9544
ภาคส่วน 9541
LG 9536
gel 9532
MS 9529
ฉัตร 9528
เอฟเวอร์ตัน 9528
Add 9526
สึ 9526
Sk@@ 9524
สู 9524
าน@@ 9518
text 9517
Street 9516
pe@@ 9516
ทำใจ 9510
เมด 9508
ตอบโต้ 9507
สมุทรสาค 9505
บริบูรณ์ 9503
ภิ@@ 9503
Brand 9499
เดี้ย 9498
วาล์ว 9497
ภูมิประเทศ 9496
ใจเย็น 9496
ر@@ 9495
ีย 9495
รังเกียจ 9489
อิรัก 9488
นันท์ 9487
EX@@ 9486
Bl@@ 9484
ซึ@@ 9483
กรรมสิทธิ์ 9479
ภรณ์ 9479
หมอง 9478
เนรมิต 9477
PO@@ 9476
ข่วน 9475
xx 9469
เหยียด 9469
กรวย 9468
เอ๋ย 9468
ปนเปื้อน 9463
เต็มใจ 9461
ยางพารา 9460
จิบ 9456
แฟ@@ 9454
National 9453
Continue 9452
แลดู 9452
Flash 9451
ita 9450
คลุก 9444
โรจน์ 9439
เคลม 9437
xxx@@ 9434
หร@@ 9434
King 9432
val@@ 9432
พริตตี้ 9431
แน่ชัด 9421
ชั@@ 9420
หอก 9414
โยง 9414
Har@@ 9410
 9410
ดื้อ 9410
สิทธิบัตร 9410
กล้าหาญ 9406
の@@ 9406
ics 9405
ท้าว@@ 9400
บบ 9398
เลซ 9397
001 9389
แมค@@ 9389
รูปธรรม 9386
มาดริด 9383
ชั่วร้าย 9375
ซัน@@ 9375
คณบดี 9373
ดุ@@ 9371
เถื่อน 9369
มิน@@ 9368
ร้อนแรง 9366
เฉลย 9366
ทวง 9360
เทือก 9357
ทนาย 9355
ปริมาตร 9355
é 9354
รัชสมัย 9354
ไอร์แลนด์ 9352
ชักชวน 9351
ss@@ 9350
เจียร 9350
к@@ 9348
ซีด 9347
พิธีกรรม 9346
ets 9345
ประชาชาติ 9337
พรี@@ 9336
ชม@@ 9335
✓ 9335
…… 9333
CR@@ 9332
คูป 9332
เวียง 9332
เทวี 9331
ลาม 9327
ตืด 9322
ขู่ 9317
รักษาพยาบาล 9316
LE 9315
ผับ 9312
ี้ 9312
วิลล์ 9305
era 9303
หงุดหงิด 9301
เอนไซม์ 9301
ไอดอล 9300
๒๐ 9299
ไอโฟน 9298
ต่อ@@ 9295
Em@@ 9294
กุน 9289
ลิก 9289
Agoda 9287
dr@@ 9283
ริช 9282
เซี่ยงไฮ้ 9282
ป่า@@ 9281
ร็อก 9276
web 9274
DO@@ 9272
ฝีเท้า 9271
โสม 9260
SU@@ 9258
aj@@ 9255
สามเณร 9255
ื 9255
เกร็ด 9253
กรง 9250
เวส 9249
User 9245
สุวรรณ@@ 9245
พระชนมพรรษา 9242
ek 9240
กะทิ 9230
บรรณาธิการ 9228
ล้านนา 9228
ดราม่า 9227
หรีด 9227
เว่น 9227
ตราด 9226
gmail 9225
โน่น 9224
е@@ 9223
เรียบเรียง 9223
ET 9222
เลิฟ 9221
fr@@ 9220
ate@@ 9215
98@@ 9210
ลิ่ง 9210
บิ 9208
ไฮโดรเจน 9205
` 9203
่อ@@ 9202
ฌ@@ 9201
gu@@ 9200
ดร@@ 9200
ญญา 9199
ลังเล 9198
Tel 9191
ตอ 9189
you@@ 9188
กฎเกณฑ์ 9186
ขอบใจ 9185
เอา@@ 9184
ดูดซับ 9182
เหย้า 9180
บาดแผล 9177
ฟรี@@ 9176
Go 9173
Wireless 9173
เพาะปลูก 9173
ปฏ 9171
วิจิตร 9171
๊บ 9171
Ver@@ 9168
ทรา@@ 9166
โรงแรม@@ 9165
องค์การ@@ 9163
TS 9162
ab 9157
อนุสาวรีย์ 9157
TO 9153
พระทัย 9153
อิตาเลียน 9151
3G 9148
Box 9147
iv@@ 9139
นาท 9139
PDF 9137
ore 9135
อะตอม 9134
ตลาด@@ 9132
รอก 9132
ชะ 9131
พระภาค 9131
เขาใหญ่ 9131
ผลัก 9129
MHz 9128
ธา@@ 9128
มีนบุรี 9126
not 9124
รัช@@ 9124
IR@@ 9122
พจน์ 9120
Edition 9119
สถาบัน@@ 9118
จับมือ 9117
ลีย์ 9117
จุฬาลงกรณ์ 9115
จ์ 9114
ณา 9110
สวิตเซอร์แลนด์ 9108
Studio 9106
link 9103
เคเบิล 9103
เรส 9103
sm@@ 9097
st 9097
ชี้วัด 9097
SS@@ 9093
Project 9089
ปริ้น 9085
ปิ 9085
AG@@ 9082
แหวก 9082
นู 9080
มพ@@ 9075
รอน 9074
Twitter 9073
สพป. 9069
หมู่บ้าน 9066
พิพาท 9060
กำเริบ 9058
หุ้นส่วน 9058
อาชีวศึกษา 9055
ser@@ 9051
ขึ้นชื่อ 9051
ระคาย 9048
มหิดล 9047
DC 9046
Intel 9046
จักร@@ 9046
erm@@ 9045
ลล์ 9044
เข้ 9044
รังสรรค์ 9042
สืบเนื่อง 9042
ED@@ 9041
AS 9040
ทวด 9040
เอ็ก 9038
มหา 9037
ยโสธร 9036
อัปเดต 9030
ศรีสะเกษ 9028
อัณฑะ 9028
แป 9028
True 9025
แฮปปี้ 9019
yn@@ 9018
AI@@ 9016
ฮัน@@ 9016
เกษม 9015
สาม@@ 9014
Inter@@ 9013
ms 9013
๐๐๐ 9013
190 9012
กุม 9012
วัตร 9011
code 9009
ป้า@@ 9008
Ag@@ 9006
ดอร์ 9006
สหประชาชาติ 9006
email 9002
โครงงาน 9002
อนุกรรมการ 9001
คงทน 9000
����@@ 9000
SS 8996
วิพากษ์วิจารณ์ 8995
ลาง 8994
sw@@ 8988
 8988
 8983
ly@@ 8982
ell 8969
78@@ 8968
ค้ 8967
รอบรู้ 8964
ium 8959
ลวง 8958
เฉือน 8958
210 8957
style 8957
กบฏ 8957
บ้านเกิด 8957
My@@ 8954
กาลเวลา 8951
เปอร์@@ 8949
у@@ 8948
111 8947
120@@ 8946
จิก 8946
VS 8945
XL 8944
ou 8944
คิก 8943
กส์ 8941
ts@@ 8938
MAXBET 8936
อั้น 8936
แม่น้ำเจ้าพระยา 8936
กัง 8935
ปาย 8935
2002 8933
reading 8933
Gi@@ 8928
พระนาง 8926
มหาวิทยาลัยราชภัฏ@@ 8925
เสวย 8925
mo@@ 8923
แม 8922
คละ 8920
ชินวัตร 8919
ประติมากรรม 8918
รวบ 8914
ราชมงคล 8905
ตำ@@ 8903
ฮี@@ 8902
เกียจ 8896
ü@@ 8892
นต์ 8892
สวน@@ 8892
๒๕๖๐ 8890
กิจ@@ 8888
กฏ 8884
กำนัล 8884
โพ 8884
Comp@@ 8878
ติด@@ 8877
สง่า 8877
่ย 8873
นน@@ 8872
สารคดี 8870
light 8869
สังสรรค์ 8869
× 8868
home 8867
หอบ 8867
Central 8864
เพลา 8863
นมัสการ 8861
แวน 8861
มิลลิกรัม 8858
แฮร์รี่ 8858
วิถีทาง 8854
มุกดาหา 8853
ห้วยขวาง 8852
เฮง 8851
มัส 8849
เจ้าพระยา 8847
เอเชียตะวันออกเฉียงใต้ 8847
จ.เชียงใหม่ 8846
เสี่ย 8842
ลิน@@ 8841
้ง@@ 8838
It 8837
โรส 8837
กระหาย 8836
ชล 8836
เบนซ์ 8834
SI@@ 8833
แจ@@ 8832
แล่น 8832
ขันธ์ 8831
เวียนนา 8831
Market 8827
นิล 8826
แขนง 8826
พระพร 8825
อาน 8821
ห้วง 8817
กระทรวงพาณิชย์ 8816
แจง 8816
บัง@@ 8815
EMS 8812
พาด 8811
ทุ่ง@@ 8810
คูปอง 8809
พังงา 8800
ตู@@ 8798
พาร์ทเมนท์ 8796
ไตร 8795
กลุ่ม@@ 8793
เชื้อชาติ 8790
สกิน 8784
ื้อ 8783
ซ์@@ 8782
2541 8781
เฉ@@ 8781
ลิปสติก 8780
แคว้น@@ 8780
ป่าว 8779
Color 8778
Sal@@ 8778
โชติ 8776
 8775
ติดขัด 8774
แต่ว่า 8774
คุณลูกค้า 8772
หยวน 8768
app 8754
ประจุ 8754
๊ะ 8754
หลวงพ่อ 8753
ก้อย 8751
Pe@@ 8748
กะรัต 8746
ริส 8742
ลำเลียง 8742
โถ 8741
แก้ว@@ 8739
เทรา 8738
ve@@ 8734
my@@ 8730
im 8726
เฟ้อ 8721
ไถ่ 8719
รัก@@ 8717
แซงต์ 8716
วก 8714
สั่งสอน 8711
ลส์ 8708
พระบาทสมเด็จพระปรมินทรมหาภูมิพลอดุลยเดช 8704
เบราว์เซอร์ 8704
มิเตอร์ 8701
Open 8699
aph@@ 8696
ประภา 8696
นาโน 8695
เต๋า 8688
บอ@@ 8686
เกา 8686
 8685
ธานี 8684
เวล@@ 8684
/@@ 8683
ir 8681
อัญเชิญ 8680
ลูกไม้ 8676
แตะต้อง 8671
ไดอารี่ 8670
เร่ 8667
2539 8666
ings 8661
เท้าใหญ่ 8657
บิท 8653
Premium 8652
Seattle 8652
ลิ้งค์ 8650
ดาวเทียม 8647
นายสุ@@ 8646
จิตรกรรม 8644
ทวิตเตอร์ 8644
วิทยาเขต 8644
รุกราน 8643
สรร 8642
น้ำยา 8641
EM@@ 8640
สนาม@@ 8640
Nissan 8639
แพล 8639
UR@@ 8637
มาริ@@ 8636
พรู 8635
นัน 8634
ยก@@ 8633
PR@@ 8630
พิม 8627
ต้องห้าม 8626
เอเชียน 8625
2020 8624
ริ่ง 8624
โยธา 8621
เจ้ามือ 8620
VR 8617
ทวน 8616
Health 8614
ฉลาม 8613
สตี 8613
ene 8611
สถาน@@ 8611
ทรัมป์ 8609
อัต@@ 8606
แจ็ค 8605
มงกุฎ 8604
500@@ 8603
ภั@@ 8603
มหาวิทยาลัยเกษตรศาสตร์ 8602
มาย 8601
ama 8599
กฐิน 8599
ฎ@@ 8598
font 8594
โหม่ง 8594
68@@ 8593
NE@@ 8593
าร์ 8593
วุฒิสภา 8590
 8588
กรีซ 8588
ฟิลด์ 8584
แอปพลิเคชัน 8583
ET@@ 8577
sch@@ 8577
Ford 8576
air 8575
หาด@@ 8575
เวน@@ 8574
ให้การ 8573
เนอะ 8572
о@@ 8568
ระฆัง 8568
สุด@@ 8568
อัง@@ 8567
ดอน@@ 8566
โรม 8565
ออโต้ 8561
Super@@ 8559
พิถีพิถัน 8559
แบบฉบับ 8559
IM@@ 8557
ตกต่ำ 8554
download 8553
มอลล์ 8553
พระมหากรุณาธิคุณ 8552
รสนิยม 8549
mp3 8548
ชี่ 8547
Model 8546
ซีก 8546
หรา 8546
ณัฐ@@ 8545
ข้าว@@ 8543
ยาง@@ 8543
โอชา 8542
、@@ 8538
มอญ 8537
สมเด็จพระเทพรัตนราชสุดาฯ 8536
ห่วงใย 8534
center 8533
Col@@ 8529
ับ 8528
เหวี่ยง 8527
คาดคิด 8525
สาบาน 8525
แม่ทัพ 8522
ริก 8516
ขี้@@ 8513
พัฒนา@@ 8513
ไพร 8513
สถิต 8511
นํ้า 8510
ทองเหลือง 8509
เบอร์รี่ 8509
หมั้น 8504
AUS 8502
อุทกภัย 8502
ซาร์ 8498
พลา 8498
ผนวก 8497
บ่า 8493
มอร์@@ 8493
MA 8492
Leave 8487
โกล@@ 8485
tive 8484
กระถาง 8484
สถานที่ตั้ง 8479
ออเดอร์ 8478
ดีกรี 8476
Cal@@ 8474
MP@@ 8474
Movie 8473
จิ้น 8472
เชียง@@ 8471
เบิล 8470
ก์ 8469
เจ้าฟ้า@@ 8467
๑๑ 8466
ตัดต่อ 8464
ative 8462
ดอล 8462
ไบนารี 8460
Of 8458
oo 8452
เมเจอร์ 8451
Water 8450
ณรงค์ 8450
ling 8448
ลูกบาศก์ 8448
DR@@ 8447
พระโขนง 8447
สเบิร์ก 8447
Categories 8446
top 8446
วิด 8446
ผุด 8444
สาธารณรัฐ@@ 8438
โต้ตอบ 8438
เซนต์@@ 8436
game 8432
มีน 8431
comment 8426
สูด 8425
ถั่วเหลือง 8423
ภูมิศาสตร์ 8423
กะทัดรัด 8421
ซุง 8420
สโมสร@@ 8420
เหม 8417
lin@@ 8416
อาร@@ 8415
ญ่า 8410
ge@@ 8409
ฟีฟาย 8406
สุจริต 8406
ท่าที 8405
Hot 8404
สก@@ 8403
Sw@@ 8400
บัลลังก์ 8400
พลา@@ 8399
PS 8396
eng 8396
เท็ม 8391
3000 8390
man@@ 8390
tions 8390
ฉะเชิง 8387
๖๑ 8386
ile 8382
sub@@ 8382
PP 8381
po@@ 8380
ธุรการ 8378
ไวท์เทนนิ่ง 8378
ชล@@ 8376
ot 8375
คริสตัล 8375
ประเทศออสเตรเลีย 8375
พรมแดน 8370
ํา 8367
Mag@@ 8363
ผีเสื้อ 8363
ซัพ 8359
ปก@@ 8357
เซอร์ไพรส์ 8355
หลวม 8349
สบ 8347
่ม@@ 8346
ฌาปนกิจ 8345
หากิน 8344
jobs 8342
กลับกลาย 8341
รู้@@ 8341
พูดจา 8340
Station 8339
หงส์แดง 8338
น้ำตก 8333
พริ@@ 8331
โม่ 8330
จัดสร้าง 8327
สืบค้น 8327
RAM 8325
ประเทศฝรั่งเศส 8319
ซอน 8316
เซ็กซ์ 8316
แบ่งแยก 8316
ดิ่ง 8315
op 8314
สท์ 8314
COM 8313
123 8312
ราย@@ 8311
เสนา 8311
ler 8308
mg 8308
เดนมาร์ก 8307
Lazada 8306
xxxx 8306
Micro 8304
พอ@@ 8304
air@@ 8303
เอฟเอ 8302
หิ 8297
ick 8294
ยึดครอง 8294
อลังการ 8294
ขูด 8293
casino 8292
Research 8290
กัน@@ 8289
จำนอง 8286
Case 8283
04@@ 8282
ل@@ 8282
อก. 8281
67@@ 8280
64@@ 8273
บลอนด์ 8273
amp@@ 8272
เบนซิน 8271
เล็ต 8271
หัวเมือง 8269
112 8264
ทรง@@ 8262
ป.ป.ช. 8262
Software 8261
ซัง 8259
ทีน 8258
อยู 8258
ราชินี 8257
ym@@ 8255
ze 8255
ใหม 8255
cr@@ 8254
ฉี่ 8249
กฎระเบียบ 8248
เจ้าหญิง 8246
วลี 8245
в 8239
วงแหวน 8237
เอฟ@@ 8236
บริวาร 8231
แม่น้ำโขง 8228
ie@@ 8227
อำเภอเมือง 8227
อุทธรณ์ 8227
ศาสตร 8218
เสถียรภาพ 8218
จอห์ 8212
au 8211
ลุ 8211
เอื้ออำนวย 8211
gen 8210
พระบาทสมเด็จพระจุลจอมเกล้าเจ้าอยู่หัว 8209
ยึดถือ 8209
ถ.@@ 8207
Sale 8204
B4 8203
ฟาง 8198
อิม 8198
ทริค 8196
จิ๋ม 8191
Ab@@ 8190
PR 8190
ช้ำ 8190
บอส 8188
แคป 8183
คอยน์ 8181
ys@@ 8180
54@@ 8177
ผกก. 8177
รอช้า 8176
ขวัญใจ 8175
yp@@ 8174
น้ำลาย 8173
ล่ม 8173
นำพา 8171
ภ. 8171
จุฬาลงกรณ์มหาวิทยาลัย 8169
hotmail 8168
VIP 8167
นวม 8166
ความรู้ความเข้าใจ 8164
ธนา 8164
️ 8162
ไพเราะ 8156
มหานคร 8153
ปี@@ 8148
เป็นมา 8147
彩@@ 8147
จัด@@ 8146
่ม 8145
กระทิง 8141
ถ้ำ@@ 8141
ess@@ 8140
ฝ่าฝืน 8140
ไค@@ 8139
SMEs 8136
Collagen 8134
พน 8132
จอร์จ 8131
ลู่ 8128
พลู 8127
Bal@@ 8125
ase 8120
แหล่ะ 8120
ละเลย 8119
的@@ 8119
กอน 8118
แพ่ง 8116
human 8115
พุ@@ 8114
เข้า@@ 8113
pan@@ 8112
เกียรติยศ 8111
จังหวัดสงขลา 8109
พระราชวัง@@ 8109
yc@@ 8105
ปลิง 8104
za 8101
ธนาคาร@@ 8096
ish 8095
str@@ 8091
ข้าวเหนียว 8087
love 8085
estate 8084
กลมกลืน 8084
ไมโครโฟน 8084
๋@@ 8084
ain@@ 8083
บาลี 8083
ke 8081
กิ๊ก 8074
м@@ 8071
เบ้า 8069
กว@@ 8068
ตลิ่ง 8067
ยอ 8063
ฮอลล์ 8063
เยด 8062
จอย 8060
ank@@ 8057
กระบัง 8053
บุกรุก 8053
ค่ 8052
เกิล 8052
วัน@@ 8050
ail@@ 8047
ตะกอน 8044
หวง 8040
เนื่องด้วย 8039
Touch 8038
ซัส 8035
ดวงใจ 8032
อนันต์ 8030
กรรมาธิการ 8028
ny 8027
รับมอบ 8027
General 8026
cor@@ 8026
เบียด 8026
สล@@ 8023
Dual 8016
ซูม 8015
ตัดเย็บ 8015
Email 8013
Update 8013
ทยา 8013
เปียโน 8013
แบงก์ 8013
พลาง 8012
Air@@ 8009
Global 8009
ปรา@@ 8009
ice 8007
สก 8007
650 8006
เกสร 8005
As@@ 8003
งัด 8002
ตะกร้า 8001
ัก 7998
e0 7997
นม@@ 7997
109 7995
สัม@@ 7995
ธนบัตร 7994
จูเนียร์ 7992
iphone 7991
ไมโคร@@ 7991
จังหวัดอุบลราชธานี 7990
ตุง 7990
กริ@@ 7989
ซึ 7988
ick@@ 7987
Vi@@ 7985
ดาราศาสตร์ 7984
Program 7980
ไอซ์ 7971
กระตือรือร้น 7970
นารี 7969
ข้อมูลข่าวสาร 7965
ดีด 7965
จรวด 7963
พรุน 7963
ชุ@@ 7959
บรร@@ 7957
แพคเกจ 7957
วัฒน@@ 7956
เลื่อย 7956
มาลา 7953
ลิ้นชัก 7946
ki 7941
พิพิธภัณฑ์@@ 7937
● 7937
Awards 7933
103 7932
สรรค์ 7930
แพค 7930
พระครู@@ 7929
บางเขน 7927
CL@@ 7924
ตังค์ 7923
หมุด 7920
โรเบิร์ต 7919
zh@@ 7918
เกล@@ 7918
ax 7916
อัพ@@ 7916
าา 7914
ME 7907
มะกอก 7906
ถิ่นฐาน 7902
วิสาหกิจ 7899
สมุทร 7899
ุด 7898
ti 7897
สำนักนายกรัฐมนตรี 7895
มันฝรั่ง 7894
ons 7888
คงอยู่ 7888
แปลน 7885
กองทัพบก 7884
แฮนด์ 7882
เอดส์ 7881
out@@ 7878
บลู 7877
บรรจุภัณฑ์ 7876
มะเขือเทศ 7874
เกจ 7872
มีเดีย 7871
โพลี 7869
BB@@ 7867
resources 7867
Instagram 7866
ight 7865
ura 7863
วิศวกรรมศาสตร์ 7863
Real 7858
ยอน 7857
วน@@ 7857
อาณานิคม 7855
phone 7853
โบก 7853
อภิปราย 7852
เฮด 7851
WiFi 7849
พล.อ.ประยุทธ์ 7847
mobile 7844
ต้นกำเนิด 7844
อุทัยธานี 7844
ขอบพระคุณ 7842
ตะกั่ว 7842
คลาน 7841
นซ์ 7838
ศก 7838
wh@@ 7837
ส่าย 7834
ร้า 7833
แอดมิน 7831
โส@@ 7829
Mc@@ 7826
URL 7825
ates 7824
คอนเซ็ปต์ 7823
ลีน 7820
พระยา 7818
เกื้อกูล 7818
กานต์ 7817
ME@@ 7816
หอย@@ 7816
มิล 7815
นุ่น 7812
ine@@ 7811
PL@@ 7809
พ.ต.อ.@@ 7807
สหภาพ 7807
โฟร์ 7806
ท็อต 7804
ทัศนะ 7803
สาป 7803
อิส@@ 7802
สมเหตุสมผล 7800
อำลา 7797
มัง 7796
เลือน 7794
4K 7792
tv 7791
แอส@@ 7791
ผ่านพ้น 7790
ต่างหู 7788
เทิร์น 7787
เวทนา 7785
ราชภัฏ 7783
จินดา 7782
115 7779
CE 7778
Style 7777
Road 7773
วดี 7773
โยม 7770
ป๊อป 7768
อป 7767
สะใจ 7765
ออสเตรีย 7765
เขย่า 7765
ip 7755
เครื่องแบบ 7755
ประเวศ 7752
๑๖ 7747
Ge@@ 7742
เนียม 7742
ake 7739
ลาลี 7739
Pl@@ 7736
AK@@ 7735
ชิค 7734
ล้วง 7733
รื่น 7730
ขนหนู 7729
ซุ 7728
พรรคประชาธิปัตย์ 7727
เริ่มแรก 7725
ธูป 7723
เนื้อ@@ 7722
กรีด 7719
EC 7716
ฟิตเนส 7715
To@@ 7713
We 7712
ปักกิ่ง 7710
ปาด 7704
รส@@ 7704
เจ้าหญิง@@ 7704
inter@@ 7702
จระเข้ 7701
จักรวรรดิ 7700
จุใจ 7700
รว@@ 7698
EL 7697
resume 7696
ตุ่ม 7696
สง@@ 7695
ไดรฟ์ 7695
สิง@@ 7692
ure@@ 7691
Mal@@ 7688
Hi 7686
พอเหมาะ 7683
Room 7681
ค้ำประกัน 7681
service 7679
ta@@ 7679
104 7678
ยิม 7675
HD@@ 7671
ไมโครซอฟท์ 7671
amb@@ 7670
store 7668
ดินสอ 7668
สีหน้า 7668
ซัล@@ 7666
คีย์บอร์ด 7665
ศรีนครินทร์ 7664
q 7662
ฟาด 7660
Im@@ 7657
ออน@@ 7653
ster 7651
พลัด 7650
Fashion 7646
oh@@ 7644
ปิง 7641
ยน@@ 7639
หว@@ 7638
มาร@@ 7636
club 7635
ประสิทธิผล 7631
directory 7629
à¸ 7626
นิช 7625
เวลส์ 7623
สติก 7622
สพฐ. 7620
เงินตรา 7619
กรรมการ@@ 7618
pol@@ 7617
ial 7616
ทั 7615
แคลิฟอร์เนีย 7615
Canon 7612
rec@@ 7609
พล.อ.@@ 7606
ise 7599
Dr@@ 7597
comp@@ 7597
เจริญรุ่งเรือง 7593
Anime 7592
็ด 7592
DI@@ 7591
mAh 7590
นัก@@ 7587
ลาร์ 7587
เฟอร์@@ 7587
ations 7586
มินิ@@ 7585
แ 7585
Bar 7584
Bur@@ 7582
2001 7581
ประมุข 7581
อส@@ 7581
TA 7578
โน้น 7578
Sam@@ 7570
ส้วม 7565
Body 7563
ป.@@ 7563
550 7562
จิง 7562
โบรกเกอร์ 7562
กล้วยไม้ 7561
888 7560
พ.@@ 7559
ฉลุ 7555
cc 7553
Pol@@ 7552
KO@@ 7551
มณฑล@@ 7550
let 7548
Collection 7546
พระบาท 7545
Development 7544
สำนักงานคณะกรรมการ@@ 7542
แอ่น 7542
สตา 7540
ป้อง 7537
เปลว 7531
จน@@ 7529
เขย 7529
เผด็จการ 7529
96@@ 7528
เช่ 7525
เยิ้ม 7522
บุคลิกภาพ 7521
นิน 7513
AF@@ 7507
Nokia 7507
พระโอรส 7505
ы 7504
ی 7504
ฝ 7504
เนต 7504
หมี่ 7497
โลจิสติกส์ 7497
คอร์ปอเรชั่น 7496
จอร์แดน 7495
ner 7494
จัตุรัส 7494
สำอางค์ 7494
Science 7491
วาร์ 7491
oy@@ 7490
กล่อม 7489
get 7488
แอด 7487
ame 7486
have 7484
Sub@@ 7482
Cre@@ 7481
มะเขือ 7480
ช็อต 7478
ดีน 7478
od 7477
ยึดมั่น 7477
ขม 7474
โพร@@ 7474
พารา@@ 7472
อี้ 7467
Wh@@ 7461
function 7461
ศึกษา@@ 7461
ดิ้น 7457
เลื้อย 7457
กุด 7454
Kar@@ 7452
เเบบ 7452
สมา@@ 7451
โหม 7450
ents 7449
จารย์ 7449
if 7447
บล็อค 7447
Cam@@ 7446
เสือ@@ 7446
ฟี 7445
tor 7442
แบริ่ง 7440
128 7439
low 7439
สุดคุ้ม 7439
กรี 7435
ชิ่ง 7435
หวี 7435
ч@@ 7434
tag 7433
เขี่ย 7433
เล่าเรียน 7433
va 7432
อัคร@@ 7432
Night 7431
Computer 7428
เลื 7427
ไพร@@ 7427
สโบเบท 7424
ชาย@@ 7423
อาร์เจนตินา 7422
ลักลอบ 7420
BB 7418
สถานภาพ 7418
เจอร์@@ 7418
พอร์ 7413
มอน@@ 7413
ทัศน์ 7411
เปล@@ 7408
Key 7406
นด์ 7406
แคล@@ 7403
Mu@@ 7401
life 7401
เอิง 7400
ถา 7399
บูรพา 7398
อัศวิน 7398
เอาเป็นว่า 7397
นอร์@@ 7395
р@@ 7394
ว่างเปล่า 7394
็น 7391
Good 7388
สแตนเล 7387
board 7385
เปีย 7383
Pal@@ 7382
office 7381
ครุภัณฑ์ 7381
ther@@ 7380
ภูมิทัศน์ 7379
9A 7378
ป่วน 7377
PE 7376
อสุจิ 7374
ness 7373
Sports 7371
แจกจ่าย 7368
No@@ 7365
ond@@ 7363
เฟือง 7362
Travel 7361
หุง 7361
ถ่วง 7360
มหาวิทยาลัยเชียงใหม่ 7358
Fr@@ 7355
วิตกกังวล 7353
ill 7352
โป๊@@ 7351
OF 7350
วอล@@ 7347
tar 7346
cv 7345
ire 7345
×@@ 7341
สหภาพยุโรป 7339
ูล 7338
พระบิดา 7335
ียง 7335
320 7334
แชร์ก 7334
ลอ 7333
watch 7332
สบายดี 7332
พระราชโอรส 7330
н@@ 7329
เกลี้ยง 7328
ึ 7327
สง่างาม 7326
กก@@ 7325
เซ่น 7323
เอื้อม 7323
สำเนียง 7322
แอนดรอยด์ 7320
Condo 7318
ชำ 7318
สต็อก 7317
เทรลเลอร์ 7317
CC@@ 7316
Care 7313
car 7310
ไบค์ 7310
เอกราช 7309
แด 7308
ฟุ@@ 7307
IA 7306
anc@@ 7306
สวมใส่ 7304
กำนัน 7302
หนาวเย็น 7302
หรื 7302
employment 7300
็ง 7299
ger 7298
house 7298
ry@@ 7294
คอนโดมิเนียม 7293
col@@ 7292
ณะ 7291
ผันผวน 7285
เรื้อน 7284
tin 7282
จับตา 7281
วิชัย 7280
px 7279
เอกอัครราชทูต 7278
ณา@@ 7277
สั่นสะเทือน 7277
Point 7274
หงาย 7274
แง่มุม 7272
ขุ่น 7270
อารยธรรม 7270
สืบสาน 7267
เดือย 7263
Speed 7256
งาน@@ 7256
ami 7255
รร. 7254
เรด 7251
โนน@@ 7251
โด่ง 7250
เชื่อฟัง 7249
จังหวัดลำปาง 7247
ทีเด็ด 7245
ข้ 7244
เลขา 7242
mini 7240
ห้างหุ้นส่วน 7240
ททท. 7239
ซับไทย 7238
บรรจง 7235
่อง 7235
back 7234
2500 7233
karaoke 7232
มะลิ 7232
วอลล์ 7232
Silver 7231
พระอุโบสถ 7231
Sur@@ 7229
เปลี 7225
113@@ 7224
ро@@ 7223
ซัมซุง 7223
จูน 7221
เสถียร 7220
๑๓ 7219
SMS 7217
โอะ 7217
ทันใด 7216
บล 7216
กุมาร 7215
Face 7213
ไซเบอร์ 7213
มหาวิหาร 7207
amp 7204
สรง 7204
เจาะจง 7204
ไต่ 7202
ถกเถียง 7201
สนช. 7199
so 7196
GR@@ 7193
โกลด์ 7189
อำเภอเมือง@@ 7188
เถ@@ 7188
เนื้อความ 7188
NET 7187
พ้อง 7185
On@@ 7181
เจ็ท 7180
por@@ 7179
97@@ 7176
ini 7176
สติ@@ 7176
เนย์ 7176
เพี้ยน 7175
ล่าม 7174
Novgorod 7169
years 7169
ทธ@@ 7166
ง่วง 7165
03@@ 7162
Action 7161
Cap@@ 7160
Fre@@ 7160
Genting 7160
ray 7160
ปลูกฝัง 7160
world 7159
อุดมการณ์ 7156
THAILAND 7153
San@@ 7151
ปราชญ์ 7151
ect@@ 7147
พรสวรรค์ 7147
สหาย 7147
เดอ@@ 7147
แย้ม 7147
bl@@ 7146
Porn 7145
ว่ะ 7145
SL@@ 7144
ซีเมนต์ 7143
มัสยิด 7143
สับปะรด 7143
วูด 7139
Dr 7134
ตระเวน 7133
IF@@ 7132
เสน 7132
๒@@ 7132
�� 7129
ออง 7128
ดาดฟ้า 7125
๊ค 7125
รื่นเริง 7123
2538 7122
Special 7122
ker 7122
ิม 7120
หน้าผาก 7119
ประสิทธิ์ 7118
ฉาบ 7117
pi@@ 7116
EA 7115
Mor@@ 7115
seeker 7115
กระทรวงเกษตรและสหกรณ์ 7115
ช็อก 7114
PC@@ 7112
youtube 7112
ตรุษ 7112
สั 7111
แบนด์ 7110
แป@@ 7109
ism 7108
Tablet 7107
อึ้ง 7107
่อน 7107
Expo 7106
จํา 7105
บัล@@ 7105
ตื่นตัว 7104
ปอ 7102
ทรุด 7100
รัง@@ 7100
ไห้ 7100
LA 7097
เพิ่มพูน 7097
พระราชกุศล 7096
س@@ 7094
พระบรมราชินีนา 7094
ไพบูลย์ 7094
42@@ 7093
แบบแผน 7092
หวาย 7089
กระทรวงการต่างประเทศ 7088
จั 7088
ชีว@@ 7086
Oil 7085
Pan@@ 7085
jobseeker 7084
บาร์โค้ด 7083
ไม่@@ 7081
ลิสต์ 7080
ン@@ 7080
ซิล@@ 7078
เชื่อใจ 7076
เก็ง 7075
CH 7072
เฟ 7072
เวียง@@ 7072
list 7069
คูล 7069
สต้า 7065
e” 7064
สง 7062
Com 7060
่าง 7056
อุทยานแห่งชาติ@@ 7054
เพาเวอร์ 7054
ริค 7053
card 7052
โอลด์ 7052
ตักบาตร 7051
OPPO 7049
IL@@ 7047
und 7047
Cable 7046
ดำ@@ 7046
มุง 7043
เห 7043
kg 7042
ซิงเกิ้ล 7040
เจ้าชาย 7040
Beach 7038
ซูล 7038
เจ๊ 7037
โบราณคดี 7037
Baby 7036
DS 7036
เอเซีย 7036
เวนเกอร์ 7035
พัทลุง 7034
สะเทือน 7033
สมาน 7031
MV 7030
title 7026
ภัตตาคาร 7026
็ต 7026
สนธิสัญญา 7025
กระทรวงกลาโหม 7024
ไอคอน 7024
Your 7023
ผา@@ 7020
Author 7016
กลุ้ม 7016
เพชร@@ 7016
Is@@ 7014
ซี๊ด 7013
หีบ 7013
แอปเปิล 7013
Out@@ 7012
ซูชิ 7009
กงสุล 7008
พริกไทย 7006
คริสตจักร 7005
มูน 7005
โปสเตอร์ 7004
เรน@@ 7001
ดิส 7000
๑๔ 6997
มุ้ง 6994
ฮิ 6992
บูล 6990
เดร 6990
คส์ 6989
ato 6988
ยับ 6985
260 6984
365 6981
นิส 6981
เจ้าพ่อ 6981
Tri@@ 6979
หมิง 6979
BE@@ 6977
Powered 6976
ตะลุย 6976
Go@@ 6973
สมเด็จพระเจ้าอยู่หัว 6973
ฮังการี 6973
พระคัมภีร์ 6972
เทน@@ 6972
แหม 6972
ax@@ 6971
ko 6970
celandine 6969
เจ้าพระยา@@ 6965
เพล@@ 6961
106 6960
ena 6959
็ก@@ 6958
CT 6957
ยุทธ@@ 6957
อยด์ 6957
ฏ 6956
อิสรภาพ 6956
1990 6954
ราชวงศ์@@ 6953
87@@ 6952
ติวเตอร์ 6952
NEW 6951
มนตรี 6951
สุภาพบุรุษ 6951
หอ@@ 6948
โปรดปราน 6948
full 6947
ด์@@ 6946
กลูต้า 6945
data 6943
นินทา 6941
กัล@@ 6938
ตรึง 6938
ท้องผูก 6935
Hol@@ 6927
ครี 6927
ลอง@@ 6925
หม่อม 6923
เบย์ 6922
สติ๊ก 6920
name 6919
fe@@ 6918
เครา 6918
中@@ 6915
Express 6913
tit@@ 6913
ตต์ 6913
pdf 6912
บ่ 6911
ครอบงำ 6910
จงรักภักดี 6909
เจ้าถิ่น 6908
เอมิเรตส์ 6906
Ser@@ 6901
over 6901
เจียว 6901
HDMI 6900
With 6899
สึก 6899
ement 6898
PH@@ 6897
เนตร 6896
ไฮโซ 6896
í@@ 6895
ห่วย 6895
คบหา 6893
เจียง 6892
Slim 6891
tra@@ 6891
กลบ 6888
มาริ 6888
็อก 6888
ศา@@ 6886
ือ@@ 6884
จังหวัดภูเก็ต 6883
พละ 6880
เพอร์ 6880
จอมทอง 6879
สกรู 6879
แฉ 6879
หมวย 6878
บริดจ์ 6875
tim@@ 6874
Av@@ 6872
กระสอบ 6872
ไช@@ 6869
นิเทศ 6868
ru@@ 6866
ตฺ@@ 6866
มิก 6865
about 6864
ฮู@@ 6864
สพ 6860
เอฟซี 6857
Photo 6856
ไอเทม 6855
นัน@@ 6853
ตูน 6851
ach 6849
ht@@ 6848
ปรุงแต่ง 6848
ه@@ 6845
เอ้ 6845
ust@@ 6844
คาดหมาย 6843
199 6842
จูง 6842
นุ่ง 6842
แมท 6841
07@@ 6840
Festival 6839
สะพาน@@ 6838
ฮฺ 6838
เกาะสมุย 6838
Standard 6837
л@@ 6837
ลิฟต์ 6837
DA 6836
я@@ 6835
เมนต์ 6834
ลาซา 6833
Notebook 6832
วิช@@ 6831
หลอม 6826
เภสัชกร 6826
นอง 6825
ซีสต์ 6824
Public 6821
พระพุทธองค์ 6821
องค์@@ 6821
โดนใจ 6820
พบเจอ 6819
คลิ@@ 6818
 6815
เจน@@ 6814
SDA 6813
ทมุนด์ 6813
จุดอ่อน 6810
เอนกประสงค์ 6810
ทอน 6809
รร@@ 6807
แท็บ 6804
ทวีปยุโรป 6803
ä@@ 6802
คอมมิวนิสต์ 6802
มาริโอ 6802
็ค@@ 6800
ox@@ 6799
ซิป 6798
กรณ 6795
Space 6794
ตัน@@ 6793
EX 6792
ตวง 6791
ศาลรัฐธรรมนูญ 6791
Audio 6790
var@@ 6789
ปฏิสัมพันธ์ 6789
้ว@@ 6789
fer@@ 6788
๒๕๕๙ 6785
The@@ 6782
ear@@ 6782
ลื้อ 6782
กรกฏาคม 6781
อลิ@@ 6781
เทรน 6780
ดด 6778
ัส 6778
กีฬา@@ 6777
design 6775
เฟ้น 6775
ตุ 6773
มั่ว 6773
โลภ 6773
ฟ์ 6772
ร.@@ 6771
ซบ 6767
แฉะ 6767
เพื่อนฝูง 6766
๊ก@@ 6766
à 6764
Anti 6763
คาบ 6763
ver 6762
ร่มรื่น 6762
เซล@@ 6761
สหราช 6758
Mbps 6756
จังหวัดนครปฐม 6756
DE@@ 6755
ST 6752
ora 6752
ตึงเครียด 6752
ภาพ@@ 6751
ธีร@@ 6746
ตีบ 6744
ประเทศอินเดีย 6744
มอร์ 6744
จุฬา 6743
เสื่อ 6739
ush@@ 6737
ซี้ 6737
สาธารณชน 6737
ven@@ 6736
а 6736
นพ@@ 6736
หยาง 6735
Entertainment 6733
หนองบัวลำภู 6733
ิต 6732
อมตะ 6731
fre@@ 6728
ดิสก์ 6726
150@@ 6725
ty@@ 6725
พาร์ค 6725
หนิง 6724
เควิน 6724
ศัลยแพทย์ 6723
สะเกษ 6722
ii 6721
เดอร์@@ 6721
รัต 6716
สาธารณูปโภค 6716
star 6715
อาร์เซนอล 6715
old 6712
อว@@ 6711
How 6709
พหลโยธิน 6708
Comment 6706
che@@ 6706
วิล@@ 6705
บาดาล 6704
ป๊อก 6703
ไมโคร 6702
บุกเบิก 6698
CA 6696
work 6695
ตระการ 6695
2537 6694
ด้ง 6694
วาว 6694
เว็บไซด์ 6693
ไ 6689
Po@@ 6688
อสเตรเลีย 6686
ริน@@ 6682
ล่อน 6681
ทุกข์ทรมาน 6680
ประจำการ 6677
พงษ์@@ 6677
XxX 6676
sa 6676
ith@@ 6675
63@@ 6674
So@@ 6674
ฎีกา 6669
Ev@@ 6668
โตนิโอ 6666
5000 6660
โอเค@@ 6660
Content 6659
GO@@ 6658
pH 6655
อรี 6651
China 6649
First 6649
__ 6648
Chrome 6647
นิพพาน 6647
โหนก 6647
ow 6646
๙@@ 6645
94@@ 6644
ต่อย 6644
з@@ 6639
Web@@ 6638
พระวิหาร 6637
ตล@@ 6634
ออฟ@@ 6634
นพ.@@ 6633
โบราณสถาน 6632
November 6629
hi@@ 6629
Tor@@ 6628
เบียน 6628
สวาท 6627
то@@ 6626
ฉับพลัน 6626
พระพักตร์ 6626
ตี๋ 6624
อัส@@ 6620
atic 6619
คลิบ 6618
Play@@ 6614
port 6614
ย้อย 6614
GHz 6611
จ่าฝูง 6611
อืด 6611
แปซิฟิก 6611
…” 6610
so@@ 6609
อเร@@ 6607
610@@ 6606
CS@@ 6606
ประชามติ 6605
อโศก 6605
โหราศาสตร์ 6605
Men 6601
SET 6601
info 6599
top@@ 6598
Motor 6597
1200 6596
พินิจ 6595
โคก@@ 6595
พยุง 6594
Fe@@ 6593
Xperia 6592
Access 6589
go@@ 6589
ดัตช์ 6587
มาร์ติน 6585
ลิ้ง 6585
Price 6584
สนธิ 6583
เพ่ง 6582
มป@@ 6580
Princess 6576
โมโห 6576
107 6575
Ed@@ 6574
sup@@ 6574
Sa@@ 6573
ค้าน 6573
มัย 6572
การศึกษา 6571
Award 6570
ปศุสัตว์ 6570
ร่าเริง 6570
CCTV 6566
ทาว 6566
บิล@@ 6566
College 6564
cap@@ 6564
по@@ 6564
สภ.@@ 6564
หลีก 6564
จิตร 6563
สังคมศาสตร์ 6563
will 6562
กวด 6562
ฉวย 6561
ฟ้องร้อง 6561
width 6559
เบิร์น 6558
Youtube 6556
#@@ 6553
ฆาตกร 6552
sis 6550
ศักดิ์ศรี 6549
กลิ้ง 6545
คัดลอก 6545
280 6544
๒๔@@ 6544
เนล 6543
ery 6541
มรรค 6541
ก๊อก 6539
Pink 6538
คิน 6537
Happy 6535
วิสัย 6535
ji 6534
bar 6533
And 6532
โป๊ฟ 6532
วุ้น 6530
SK@@ 6529
มัลแวร์ 6529
230 6525
นิติ@@ 6525
เทส 6521
อธิ@@ 6519
โฮเต็ล 6519
กายภาพบำบัด 6518
ผัก@@ 6518
EP@@ 6517
เคียงข้าง 6516
กูล 6514
เชิด 6511
วุ@@ 6509
Nor@@ 6508
ลวก 6508
ศรีราชา 6507
anti@@ 6506
สามัญชน 6506
๑๘ 6505
one@@ 6502
จุดหมายปลายทาง 6502
มป์ 6502
หี@@ 6502
Val@@ 6501
ริโอ 6501
ศักราช 6501
do@@ 6497
หวั่น 6497
️@@ 6497
Cup 6495
เปี้ยน 6495
tion@@ 6492
ครีบ 6492
เหน@@ 6492
135 6491
ding 6490
Skin 6487
b8 6487
คลาวด์ 6484
วินเทจ 6482
Ultra 6481
di 6479
War@@ 6478
850 6477
Bu@@ 6477
เหอะ 6475
ปง่าย 6474
าราม 6474
IG@@ 6473
ฉะเชิงเทรา 6473
พาหะ 6471
เปอร์ออกไซด์ 6471
akrustal 6470
Team 6468
บรู@@ 6468
หวน 6466
แตด 6466
อาร์ต 6463
เลื่อมใส 6463
เพอร์@@ 6462
news 6460
นาฏศิลป์ 6460
ปราณี 6458
2563 6453
หลอน 6452
ich 6451
สุนทร 6450
ฑ@@ 6449
โต้แย้ง 6448
bag 6447
ค้างคาว 6447
ี้@@ 6447
Pi@@ 6446
Zone 6443
มหาวิทยาลัยเทคโนโลยี 6441
ดส์ 6439
ฮือฮา 6438
โจ้ 6438
ไดโนเสาร์ 6438
Long 6436
คะนอง 6434
ขลัง 6433
อ้าย 6433
system 6431
แคร@@ 6427
ร้อยเอ็ด 6426
บอดี้ 6422
เวิร์ 6422
ไซน์ 6422
ลิง@@ 6420
GA 6418
met@@ 6417
คื 6416
เคน@@ 6415
โคก 6413
เปียนส์ 6412
มานะ 6411
ชิว 6409
นายหน้า 6409
เลิศ@@ 6409
Char@@ 6408
jav 6408
ปากคำ 6408
ระคายเคือง 6407
โคราช 6407
ก๊ก 6406
๖๐ 6402
Bel@@ 6401
bar@@ 6401
Pump 6399
ทีม@@ 6399
เพ้นท์ 6398
โรล 6398
ซีดาน 6396
ยั่ว 6396
OK 6395
Ter@@ 6395
แทรกแซง 6395
โรม่า 6395
หมู่เกาะ@@ 6394
ฟิล 6393
วร์ 6393
American 6392
here 6392
ม.@@ 6390
สติกเกอร์ 6390
เสี้ยว 6390
เคล้า 6389
ack 6385
uk 6384
Fl@@ 6382
สมเด็จพระเจ้า@@ 6382
ни@@ 6381
ปกรณ์ 6379
ยบ 6378
วิทยานิพนธ์ 6377
อนุเคราะห์ 6376
AU@@ 6373
sur@@ 6372
พระที่นั่ง 6372
Education 6371
ฒ 6371
char@@ 6370
ster@@ 6369
เรียงราย 6368
ส่ 6367
Multi 6365
เชิดชู 6364
ทิป 6363
หิ@@ 6363
ware 6361
AW@@ 6360
คั่น 6359
trans@@ 6358
PS@@ 6356
มือ@@ 6356
Blog 6355
sk 6353
ดอนเมือง 6353
มาตร 6353
วรรณ@@ 6352
เต้นรำ 6352
ال@@ 6349
ติดต่อสื่อสาร 6349
แจ 6348
ไข่มุก 6348
กระซิบ 6346
อยู่@@ 6346
icon 6345
เมืองทองธานี 6342
Mac@@ 6341
มิว 6341
เกลี่ย 6338
key 6337
м 6336
ราชสมบัติ 6333
ซอ@@ 6332
ราชสำนัก 6332
แรม@@ 6332
SW@@ 6331
กระท่อม 6331
แม็ก@@ 6331
ari 6330
เอม 6330
สังคมศึกษา 6329
กลูเตน 6327
มุ่งหวัง 6327
คลั่ง 6326
อับ@@ 6325
ม์ 6324
แหย่ 6322
ella 6321
ปิดกั้น 6321
Security 6316
เขิน 6316
สู@@ 6315
ซั@@ 6313
เรีย@@ 6313
73@@ 6312
ท้อ 6312
โควตา 6308
โรง@@ 6306
Can@@ 6305
แห 6303
สเป@@ 6302
085 6301
ตส์ 6299
เทศน์ 6298
Port 6297
โกร@@ 6297
Nov 6296
บลู@@ 6296
๑๗ 6296
sal@@ 6295
we 6295
ค้ำ 6295
iPod 6293
ยี 6292
น้ำเสียง 6291
เมล@@ 6289
Sol@@ 6287
ชี้นำ 6287
ฟู้ด 6287
ผลึก 6286
ฝาย 6286
วิจัย@@ 6286
อินสตาแกรม 6284
โยกย้าย 6283
GS 6282
null 6282
โหดร้าย 6281
ye 6279
Story 6277
เขี้ยว 6277
เล็งเห็น 6277
้ก 6275
บาร@@ 6274
สายพาน 6274
ation@@ 6273
kin 6273
ตุลาการ 6271
เงย 6271
แอพ@@ 6271
่ะ 6270
Year 6265
พิง 6265
ชอบใจ 6262
เมือก 6260
Player 6259
ข่าวคราว 6259
เว้า 6255
ลุมพินี 6254
พีช 6252
ยัย 6252
มัล@@ 6249
ลูกหนี้ 6249
เวียร์ 6248
like 6247
เพา 6247
log@@ 6244
แซน 6244
HR 6243
หวาดกลัว 6243
cer@@ 6241
ตัณหา 6241
ลบ. 6240
our@@ 6238
ซาร์@@ 6235
mu@@ 6234
order 6234
พาหนะ 6233
พระเจ้าของ 6232
74@@ 6230
Learning 6230
Permalink 6230
ен@@ 6229
ราชกิจจานุเบกษา 6228
อุส 6223
form 6219
ขว้าง 6219
fl@@ 6218
”@@ 6218
ธัญพืช 6217
ฮอ@@ 6210
อย่างใดอย่างหนึ่ง 6209
John 6208
ธนา@@ 6208
แสตมป์ 6206
Mark 6204
สัมปทาน 6204
มโน@@ 6203
อิม@@ 6203
มุฮัมมัด 6202
ลิป@@ 6201
ดอย@@ 6200
ถ่านหิน 6200
Category 6198
เฮลิคอปเตอร์ 6198
พาว 6197
Double 6195
gen@@ 6194
sion 6192
ช็อกโกแลต 6191
5555 6187
seborrheic 6186
ล์@@ 6186
ae@@ 6185
FM 6183
โนน 6182
อัม@@ 6181
าร์@@ 6181
แสวง 6181
Garden 6177
ละมุน 6177
ตรงไปตรงมา 6176
สอง@@ 6170
หน้าผา 6169
อุ 6168
ose 6167
นิโก 6167
เปรม 6167
โปรดเกล้า 6164
ีก 6163
โอเวอร์ 6158
ö@@ 6156
ท้าว 6156
๓@@ 6156
รอง@@ 6155
อนุญาติ 6155
สืบ@@ 6154
รัตน 6151
พิกเซล 6149
เคอร์@@ 6145
Board 6144
บาหลี 6144
สาว@@ 6144
านุ@@ 6143
can@@ 6142
หยั่ง 6142
Phlebologist 6141
。@@ 6140
Tour 6139
ระทึก 6139
สังข์ 6139
Women 6138
มิล@@ 6138
โอซา 6138
ธรรมศาสตร์ 6137
ุม 6137
กัญชา 6135
อยุ่ 6134
เม้น 6134
inc@@ 6133
พระไตรปิฎก 6133
สวิส 6132
เวทมนตร์ 6131
กม@@ 6127
Hosting 6125
กิต 6125
เด็กหญิง 6125
คลา@@ 6123
DIY 6122
PP@@ 6122
กรี๊ด 6122
ศรีษะ 6122
Sun 6121
ควัก 6121
ทรา 6121
่ำ 6121
bs 6117
พัท 6116
ศาลฎีกา 6116
den 6113
Gar@@ 6112
enc@@ 6112
แลง 6112
PHP 6111
จันทน์ 6111
Party 6109
รูป@@ 6109
แย@@ 6109
Cl@@ 6108
ه 6108
สยอง 6107
Res@@ 6106
เซ็ง 6106
ออฟไลน์ 6105
2534 6103
ปอยเปต 6103
โฮสต์ 6103
อินทรี 6101
Shopping 6100
ตัส 6100
เบื้องหลัง 6100
114 6099
Gro@@ 6099
เยา 6099
Er@@ 6098
ฟิน@@ 6096
สหภาพโซเวียต 6096
Tokyo 6089
Coffee 6087
б@@ 6087
я 6087
เฉียบ 6087
บทความ 6085
อุปสมบท 6084
รัตนโกสินทร์ 6079
อ่าวไทย 6079
กรุ 6077
MAX 6073
เกอร์@@ 6072
ฟิศ 6071
แอม@@ 6071
บ้า@@ 6070
เทว@@ 6070
แว่นตา 6069
โบร@@ 6069
Ak@@ 6068
พระราชนิพนธ์ 6067
พฤหัส 6067
สิริกิติ์ 6067
Excel 6066
ยูเวนตุส 6066
อท 6066
600@@ 6064
website 6064
cre@@ 6062
แคน@@ 6060
สานต่อ 6059
วิลล่า 6058
Tak@@ 6057
° 6055
ฮู 6054
มอ 6053
อุ่นใจ 6053
ข่า 6052
นัส 6052
ครา@@ 6051
ตรา@@ 6050
สรรพ 6049
้ย 6049
ถ่ายเท 6048
ช่อง@@ 6047
กรุงลอนดอน 6045
เกลื้อน 6044
ตูม 6043
media 6038
กองทัพเรือ 6038
หั@@ 6038
bu@@ 6037
ตาร์ 6037
row 6036
แอม 6036
นัดหมาย 6035
IB@@ 6034
ра@@ 6034
ต้อ 6031
เถา 6031
tor@@ 6030
แคล 6030
ชาต 6029
พระโพธิสัตว์ 6029
อต 6028
ตง 6022
อ่อนเยาว์ 6022
Ke@@ 6021
แนวหน้า 6021
400@@ 6020
action 6019
วว 6018
เบิกจ่าย 6018
SC 6017
พฤกษา 6015
วรรณคดี 6015
หน่อ 6015
เพร@@ 6014
Varices 6013
สลบ 6013
หลุดพ้น 6012
ตัด@@ 6011
ซิก 6010
โ 6010
จ.เชียงราย 6009
sex@@ 6008
แกว่ง 6008
ฬ@@ 6007
ฟุตซอล 6006
้อย 6005
1998 6002
Power@@ 6002
Website 6002
itt@@ 6002
อดุล 6002
Channel 6001
แลน 6000
กิตติ@@ 5998
สายการ 5998
1999 5997
จังหวัดพระนครศรีอยุธยา 5997
บู๊ 5996
เปอร์เซีย 5996
เผาไหม้ 5996
ж@@ 5992
จังหวัดสมุทรปราการ 5992
จับจอง 5992
มิกซ์ 5991
อำ@@ 5991
นอร์ 5990
เซลฟี่ 5990
โฟลเดอร์ 5988
off@@ 5987
เฮ้ย 5987
85@@ 5986
เต็มเปี่ยม 5986
↑ 5984
article 5982
ราชพฤกษ์ 5982
อนุพันธ์ 5982
พระบรมศพ 5980
black 5979
มาราธอน 5979
Tur@@ 5978
You@@ 5978
ani 5976
ไบนารี่ 5976
jpg 5975
สบ@@ 5975
Official 5974
Hy@@ 5971
กว 5970
ดำเนินการ 5970
แอต 5969
เบอร์เกอร์ 5968
Click 5967
ix 5966
หลวงปู่ 5966
大@@ 5965
ขาม 5964
ประเทศกัมพูชา 5964
right 5962
ซีพียู 5962
act@@ 5961
เต้าหู้ 5960
ola 5959
อนา@@ 5959
BA 5958
Op@@ 5958
113 5957
ปอก 5957
หยาบคาย 5957
พระหัตถ์ 5956
สมุทรสาคร 5955
แท 5954
ผิง 5953
อรรถ 5953
Brown 5952
Mask 5952
69@@ 5951
ต้มยำ 5951
สมชาย 5951
้าน 5951
Dragon 5948
ค่อน 5947
ศุลกากร 5946
Xiaomi 5945
เลอ@@ 5944
บรมนาถบพิตร 5941
กศน. 5940
ัง@@ 5940
สงบสุข 5936
AA@@ 5935
จุล@@ 5931
มึน 5931
ูน@@ 5931
2018@@ 5930
ประเม 5930
เซเว่น 5930
ปรีชา 5929
Tre@@ 5928
นิรันดร์ 5928
ข. 5927
ข้าพระองค์ 5927
นวมินทร์ 5927
ga 5926
Lo@@ 5925
ขมิ้น 5925
III 5924
ast 5924
กีดกัน 5920
body 5919
คาร@@ 5919
าก@@ 5919
Family 5918
ประคอง 5918
ff 5916
็อง 5916
เลเวล 5914
คัส 5913
วอ@@ 5913
Hu@@ 5912
ขัด@@ 5912
ats 5911
กาญจน์ 5911
ชาด 5910
โฉนด 5910
89@@ 5909
Share 5908
awa 5908
ha 5908
คาย 5908
ริบ 5908
Switch 5907
เห็นใจ 5906
คต 5903
TC 5902
ป่น 5902
พระผู้เป็นเจ้า 5902
คอนเทนต์ 5901
เรือใบ 5901
สำโรง 5899
เชลล์ 5899
คอเลสเตอรอล 5898
tics 5896
enti@@ 5895
ชุน 5895
live 5892
FC 5890
ฮ์ 5890
จักรกล 5889
ASEAN 5888
ain 5888
ลามก 5888
จกรรม 5887
 5886
Fast 5884
โพล 5883
เร่งรัด 5882
ฟื้นตัว 5880
March 5879
pri@@ 5879
พญาไท 5879
255 5877
ст@@ 5877
วังทองหลาง 5877
เสียด 5877
ปุโรหิต 5875
แกม 5874
ไส 5874
อัตลักษณ์ 5872
ide@@ 5871
เต็ม@@ 5871
วาสนา 5870
ко@@ 5869
на@@ 5867
iy@@ 5866
เท่ห์ 5866
เวีย 5863
A4 5862
ออสการ์ 5861
เทโร 5860
ดาร์ 5859
wifi 5855
กำไล 5855
05@@ 5853
hom@@ 5852
Gen@@ 5850
พู 5850
สนั่น 5849
อุโบสถ 5849
ธา 5848
เขตแดน 5848
Ben@@ 5847
TOYOTA 5847
แมก 5847
ปลี 5846
155 5845
ม่อน 5845
″ 5845
ป่าน 5844
ปทุมวัน 5843
ัด 5843
1000@@ 5842
คม@@ 5842
ฮินดู 5842
118 5841
เซ็นต์ 5841
กำพร้า 5840
คำนวน 5839
คีรี 5839
แปรปรวน 5838
Money 5837
sol@@ 5837
จือ 5837
Mitsubishi 5833
Information 5832
พลศึกษา 5831
นอร์เวย์ 5830
พิสัย 5830
Battery 5829
วิก 5829
หนักแน่น 5826
เทศบาลเมือง@@ 5825
เรตติ้ง 5825
สอ 5824
Sep 5823
OTOP 5822
before 5821
ห้าง@@ 5821
HTC 5820
โขง 5820
Community 5819
โปรเจคเตอร์ 5819
Mer@@ 5818
ลัม 5818
ออย 5818
อ่อนเพลีย 5818
Games 5817
ล่า@@ 5817
เดียม 5815
เรต 5815
่าย 5815
แบดมินตัน 5814
FO@@ 5813
Perfect 5813
part 5813
นิดนึง 5813
วิท@@ 5813
หยิบยก 5813
Single 5810
Back 5809
นิตย์ 5809
คาดเดา 5808
กํา 5807
แคท 5807
2536 5806
ธ. 5806
จังหวัดกาญจนบุรี 5804
1980 5802
สลิม 5801
EV@@ 5800
JYK168 5800
ความ@@ 5800
ซิงค์ 5800
เวทย์ 5800
RE 5798
UT@@ 5797
ado 5797
ja 5797
แตกแยก 5797
ร้อย@@ 5796
ปี่ 5795
let@@ 5793
สุขาภิบาล 5793
แส@@ 5793
หะ 5792
Win@@ 5791
ดัม 5791
โรบิน 5791
September 5789
รัชดาภิเษก 5789
เลน@@ 5789
ซัว 5788
พาร์@@ 5788
เหมียว 5787
โปรเจค 5786
ดิวิชั่น 5785
ยั@@ 5785
อสังหา 5785
ice@@ 5783
มูฟ 5782
รามคำแหง 5781
Casio 5780
ble 5780
1500 5779
amm@@ 5779
จี๊ด 5779
ทะยาน 5779
ขา@@ 5778
พัก@@ 5778
ครุ 5777
ปุถุชน 5777
ass 5776
พน@@ 5775
เซนต์ปีเตอร์ 5775
๒๕ 5775
ทิม 5773
ular 5771
โครงข่าย 5771
กูเกิล 5770
ยาบ้า 5769
1996 5768
ริยา 5768
เธญเธ 5763
สรีระ 5761
bo 5759
porn@@ 5759
บรรจบ 5759
fin@@ 5758
กรวด 5757
Machine 5756
กาชาด 5754
Modern 5753
บาคา 5752
ทิน 5751
เด้น 5750
ي@@ 5748
มิวสิค 5748
สมุทรสงคราม 5747
SA 5746
ราชภัฏ@@ 5744
ship 5743
ma@@ 5742
ดอลล่าร์ 5741
เตีย 5741
ติเตียน 5739
ูก@@ 5738
ลุม 5737
ke@@ 5736
คาทอลิก 5735
ash 5734
Hero 5733
PRO@@ 5731
พง 5730
file 5729
power 5729
หู@@ 5728
สิงห์บุรี 5727
แออัด 5724
ทาบ 5723
พล.ต.ต.@@ 5723
Bag 5721
gi@@ 5721
แนม 5720
Sea 5718
เฟีย 5718
yt@@ 5717
อัส 5716
พุด 5715
ฮัน 5712
แจ่มใส 5712
Str@@ 5710
Trade 5710
background 5709
อธรรม 5709
ศรีศักดิ์ 5707
San 5704
ized 5704
ปี้ 5704
ais 5703
อสูร 5703
โฟ 5703
by@@ 5701
พ.ต.ท.@@ 5700
ลิขิต 5700
ไดร์ 5700
แมทช์ 5699
Word 5697
 5693
087 5692
aki 5692
Soft 5691
อาหารการกิน 5691
โรงเรียนวัด@@ 5691
มีการ 5688
เก๊า 5688
นน 5687
๋ง 5687
ติ๊ก 5686
หลงเหลือ 5685
ทิเบต 5684
ปล. 5683
ช็อปปิ้ง 5682
ทหาร@@ 5681
ข้อสอบ 5679
จุ่ม 5679
ดุสิต 5679
Jun 5678
La@@ 5678
inf@@ 5678
จวน 5677
ฮั@@ 5674
เถียง 5674
เฟร@@ 5674
Over@@ 5673
blog 5673
YO@@ 5672
server 5672
ดีแทค 5672
้าย 5672
ทบ. 5669
ัว 5669
hand@@ 5667
สู้รบ 5667
กรมธรรม์ 5666
ณิ@@ 5666
โซเวียต 5666
มหาเศรษฐี 5665
คัน@@ 5664
ผู้ดี 5664
202 5661
ier 5661
ชี้แนะ 5661
นันท@@ 5659
หมาด 5658
ร่าน 5657
เหงือก 5657
Siam 5656
แกร@@ 5655
สวิตช์ 5653
т 5651
คลาดเคลื่อน 5651
ณฑ@@ 5650
เทิด 5650
bre@@ 5649
ดื่มด่ำ 5649
อินทร์ 5649
ให@@ 5648
ls 5646
ps@@ 5646
แฮ 5645
เก็บตัว 5644
อบต. 5643
Land 5642
สส@@ 5642
เอ็นดู 5642
ทำกิน 5641
ss 5639
จุน 5638
ทาง@@ 5638
ส่อ 5638
กิตติ 5637
MC 5635
ลิโอเนล 5634
จัดซื้อจัดจ้าง 5632
จังหวัดปทุมธานี 5631
พม. 5631
สต 5631
สืบต่อ 5630
ผบก. 5628
โทรสาร 5627
Don 5626
SP 5626
ป็อก 5626
แบบอย่าง 5625
แหล 5625
GT 5624
ศึกษาวิจัย 5623
YOU 5621
ซม 5621
ลายมือ 5620
เสร 5619
เมนท์ 5618
270 5617
й 5616
แป๊บ 5615
สติ้ง 5614
user 5612
​@@ 5612
๒๑ 5611
จังหวัดนนทบุรี 5610
มล@@ 5608
หัตถกรรม 5608
เซอร์วิส 5608
แบร์@@ 5608
ไทน์ 5608
ca 5607
ท้อง@@ 5606
02@@ 5604
Reg@@ 5604
oil 5603
กะโหลก 5603
CM@@ 5602
แซว 5602
Jo@@ 5601
กุล@@ 5601
ปาร์ค 5601
now 5598
สิทธิ@@ 5598
124 5597
มร@@ 5597
หน้าที่การงาน 5597
แร็ค 5597
(@@ 5595
นครินทร์ 5595
วิทยาการ 5595
โป้@@ 5594
Wifi 5588
มหาอำนาจ 5586
ยาน@@ 5586
ฟ้า@@ 5585
ตรี@@ 5583
เคยชิน 5583
เจตนารมณ์ 5583
เพรส 5583
ally 5582
จิ้งจอก 5582
ทัล 5582
น้ำตก@@ 5582
Mi@@ 5581
ตร์ 5581
มลภาวะ 5581
๋า 5581
คงเหลือ 5580
Cafe 5579
ละติน 5576
อ้อน 5576
Screen 5575
ซำ 5575
ซ. 5574
ออนซ์ 5572
Rem@@ 5571
ng@@ 5571
ขึ 5571
ช็อค 5569
บิน@@ 5569
สน.@@ 5568
Natural 5566
Nizhny 5566
CD@@ 5565
เฉิน 5565
Aug 5564
โบรก 5564
กรมชลประทาน 5562
ทวี@@ 5562
มม 5562
เฮีย 5562
War 5561
ui 5561
tis 5560
สุพรรณ 5560
กราด 5559
Be 5558
ova 5558
จาร 5558
จักรวรรดิ@@ 5556
มล 5556
St 5555
โห 5553
คอลเลคชั่น 5552
116 5551
บาร์บี 5550
สวยหรู 5548
หย่อม 5548
Out 5547
เกษตร@@ 5546
เอช@@ 5544
โหน 5543
pro 5542
บรา 5541
แพ็กเกจ 5541
С@@ 5540
คิโอ 5540
ลดเลือน 5539
คอต 5538
บนบาน 5538
175 5536
ดิ้นรน 5535
thailand4 5534
สายฟ้า 5534
หม 5533
ประทีป 5532
Trans@@ 5530
ful 5530
แยกแยะ 5530
จนท. 5529
นิพนธ์ 5529
สมัครเล่น 5529
คุ้ม. 5528
นะ@@ 5528
ภัทร@@ 5527
ใ 5526
ซือ 5525
เอ็ก@@ 5524
ICT 5523
ตุ้ม 5523
อ้าว 5523
ชิลี 5522
Sky 5521
ทิง 5521
border 5520
สิรินธร 5520
Test 5518
จังหวัดพิษณุโลก 5516
เศรษฐ@@ 5515
Lu@@ 5512
วู@@ 5511
เผ@@ 5511
MT@@ 5510
ครา 5510
กระพริบ 5509
ริง 5508
Hair 5507
ฟักทอง 5506
ุ่น 5506
201 5505
Hand@@ 5505
้อน 5505
ผศ. 5504
ฉาง 5503
พิภพ 5503
แอปพลิเคชั่น 5503
Rostov 5500
อนิ@@ 5500
ย. 5499
ess 5498
ы@@ 5497
ซูเปอร์@@ 5497
อยู่ดี 5497
แทรกเตอร์ 5497
ace 5496
ษา 5496
Magic 5495
ep 5492
มม@@ 5492
คารา@@ 5491
กาศ 5488
ขอม 5488
หนั 5488
อ๋อ 5487
เรี 5486
formula 5485
Back@@ 5484
เจ้าชู้ 5482
CP@@ 5481
กราม 5481
บลูทูธ 5481
วัชพืช 5481
สำหรั 5481
จ๊@@ 5480
ซุก 5478
เดน@@ 5477
WordPress 5476
รณ@@ 5476
Bre@@ 5475
Red@@ 5475
SR@@ 5475
122 5474
จุดยืน 5473
Mode 5472
รื่นรมย์ 5472
สส. 5470
เพิกถอน 5470
ตุ๋น 5469
๊ง 5469
د 5468
๑๙ 5468
นร 5466
Cover 5465
สค์ 5465
กราฟฟิก 5464
Display 5463
เคเบิ้ล 5462
print 5461
reg@@ 5461
กรุ@@ 5461
ญาติพี่น้อง 5461
ูก 5461
คูหา 5460
Startup 5459
ซน 5459
mod@@ 5457
เอะ 5457
โจ๊ก 5457
core 5456
อารี่ 5455
เ... 5454
ion@@ 5453
ตระ 5453
รพ.@@ 5453
แฟนตาซี 5452
็อค 5452
iss@@ 5451
ปะปน 5451
ปฏิญาณ 5450
Band 5449
ออล 5449
เกรียน 5448
256@@ 5447
Inn 5447
Low 5447
Classic 5446
เพื 5446
เกิร์ล 5445
เดส 5445
New@@ 5444
จังหวัดอุดรธานี 5444
ซามูไร 5444
อุบาย 5443
UL@@ 5442
are@@ 5442
คลองเตย 5442
นิติ 5442
สังฆ@@ 5442
สุทธิ@@ 5442
123@@ 5441
IG 5441
Pop 5441
ดีเอ็นเอ 5441
Tra@@ 5440
พร้อมใจ 5438
Suzuki 5436
ร้าว 5436
Her@@ 5434
สะดุ้ง 5433
กข@@ 5432
วีรบุรุษ 5432
กว้างใหญ่ 5429
Ep 5427
เซนเซอร์ 5426
โค่น 5425
ผุ 5423
Gre@@ 5422
ce 5422
คำแหง 5422
แม้ว่า 5422
แล้ 5422
แน 5421
โรมาเนีย 5421
int 5420
ใหน 5420
ia@@ 5418
เบลล์ 5418
tre@@ 5417
รีไซเคิล 5417
bet@@ 5416
food 5415
โมเสส 5414
ory 5413
290 5412
ต้อน 5412
เซ้ง 5412
SD@@ 5411
ا 5411
หาญ 5411
เงิน@@ 5411
QU@@ 5408
oid 5408
2522 5406
จึ่ง 5406
พระบรมราชูปถัมภ์ 5404
Talk 5403
ฮาลาล 5401
Bike 5399
ยเดช 5398
สโตน 5398
ไอโอดีน 5397
ฝืน 5396
วิดี 5396
ดุ้น 5395
der@@ 5394
เละ 5394
2533 5393
ตะลึง 5393
มิส@@ 5393
android 5392
โดรน 5391
ไฮเทค 5391
ยี่@@ 5390
เสีย@@ 5390
โศก 5390
iya 5387
Support 5386
age@@ 5386
oi 5386
Ber@@ 5385
ประสา 5385
option 5382
กริยา 5382
ชัตเตอร์ 5382
ฟู้ 5379
าย@@ 5379
อดิเรก 5378
ูด 5378
Mod@@ 5377
วาฬ 5375
สัตย์ 5375
orn 5374
ศาสดา 5374
Steel 5373
คูณ@@ 5372
เวบ 5372
ชุก 5370
สว. 5369
คาร์โบไฮเดรต 5368
ชาร์@@ 5368
บูท 5368
les@@ 5367
ดิน@@ 5367
ดุดัน 5366
โทรม 5366
ติง 5365
เรล 5365
ทส์ 5364
นัม 5364
นครพนม 5363
ไล่ล่า 5363
จังหวัดเชียงราย 5362
เออร์@@ 5362
ธี@@ 5361
บางพลี 5361
หมอบ 5360
ดูถูก 5359
ดิสนีย์ 5358
เอ๋ 5358
LS 5357
อาร์แซน 5357
trade 5356
ลูกศิษย์ 5356
ves 5355
เหลือบ 5353
ปุ๊บ 5352
เคียว 5352
Mar 5351
ลัน 5351
ไพร์ 5351
ยิปซี 5349
มุด 5347
site 5346
min 5345
ท้องตลาด 5345
ย่ำแย่ 5345
Du@@ 5344
มาศ 5343
แยง 5343
คิด@@ 5342
นิวตัน 5342
แทร@@ 5342
VDO 5341
สกี้ 5341
เอวี 5340
ไกร@@ 5340
ค้อ 5339
เกะ 5339
ute 5338
ลาดกระบัง 5338
วิทยา@@ 5338
สัตวแพทย์ 5338
เร็@@ 5338
ได้@@ 5338
Net@@ 5337
Adapter 5336
Post@@ 5336
เกี่ยวเนื่อง 5336
แก้แค้น 5336
AF 5335
กลิ่นอาย 5334
เชล@@ 5334
class 5333
อุทัย 5333
ink@@ 5331
test 5330
หลวงพระบาง 5330
นิวาส 5329
แดนซ์ 5329
off 5328
Pre 5326
ตเตอร์ 5326
Airport 5325
Yamaha 5325
ปรบ 5324
คัล 5321
มหามงคล 5321
เฉี่ยว 5321
1997 5320
BT 5320
white 5320
บิดามารดา 5319
ียว@@ 5319
ฃ 5318
Professional 5317
Yekaterinburg 5316
ยาย@@ 5315
เซร์ 5314
กองทัพอากาศ 5312
หลั 5312
เวฟ 5312
ถ่ายโอน 5311
ตื่นตาตื่นใจ 5310
ญหา 5308
หนองจอก 5308
JR 5307
กู่ 5307
ปรอท 5307
เผ่าพันธุ์ 5307
76@@ 5306
Nar@@ 5305
erg@@ 5305
อิเล็กตรอน 5304
ิล@@ 5303
เซรา 5303
โยคะ 5303
นุ 5300
ไกร 5300
ไพศาล 5300
acc@@ 5298
ท็อกซ์ 5297
เชียง 5297
79@@ 5295
สํา 5295
อ่อน@@ 5294
ลด์ 5292
สหพันธ์@@ 5292
หรับ 5292
ทันตกรรม 5291
กรี@@ 5290
มส์ 5290
ไทรอยด์ 5290
ํา@@ 5290
กังหัน 5288
คง@@ 5288
ออส 5288
い@@ 5288
AMD 5287
Option 5287
km 5287
พระบาทสมเด็จพระปรมินทรมหาภูมิพล 5285
อิฉัน 5284
86@@ 5283
Pur@@ 5283
get@@ 5283
cal@@ 5282
จัง@@ 5281
ฮั่น 5280
Gal@@ 5279
Little 5279
ถ้ำหลวง 5279
De 5278
Foundation 5278
во@@ 5278
ทำมาหากิน 5278
Meter 5277
web@@ 5277
119 5275
sport 5274
รปภ. 5274
ละแวก 5274
สเต็ก 5271
ori 5270
point 5269
jo@@ 5268
ชิต 5268
โปรดิวเซอร์ 5268
ปุย 5265
CR 5264
ลุกลาม 5264
โสภณ 5264
คอนเฟิร์ม 5263
wa 5262
Institute 5261
กาตาร์ 5260
านี 5260
โคล 5260
เว็บ@@ 5259
Ros@@ 5258
ó@@ 5258
ุง 5257
ทัน@@ 5256
ยาสูบ 5256
ลด@@ 5255
ลัส 5255
เจีย 5255
type 5254
bank 5252
s” 5252
เว่อร์ 5252
ซีซี 5251
เวียงจันทน์ 5250
กลัด 5249
но@@ 5248
ธุ@@ 5248
เชย 5248
121 5247
United 5245
п@@ 5245
ชิง@@ 5244
Vol@@ 5242
ron 5242
นิมนต์ 5242
ทศ@@ 5241
ศิลป@@ 5240
เกรงใจ 5240
1992 5238
case 5238
 5237
อลัง 5237
Hom@@ 5236
กรมการ 5236
ชัยนาท 5236
สหพันธ์ 5236
กล้าม 5234
สรรพ@@ 5234
vis@@ 5231
จู่โจม 5230
บาร์เซโล 5230
ines 5229
นุ้ย 5229
สนิทสนม 5228
Lotus 5227
ba@@ 5226
sale 5226
เลอะ 5226
จับต้อง 5225
ราง@@ 5225
ราชธานี 5225
Kr@@ 5223
ฮาน 5223
โดมิเนีย 5223
ทร์ 5222
ش@@ 5220
ทหารบก 5220
โขน 5220
Adobe 5219
คั้น 5218
ตะวันออก 5218
yl 5217
ซุ่ม 5217
Mas@@ 5215
CE@@ 5214
ขัดข้อง 5214
แอค@@ 5214
ู่ 5213
ฟินแลนด์ 5212
ื่อ 5211
อีเว้นท์ 5210
Ch 5209
กุฏิ 5209
สด@@ 5209
ซึง 5208
เฟ่ 5208
๊ป 5208
ele@@ 5207
นิติศาสตร์ 5207
มล. 5207
เดล@@ 5207
,@@ 5206
CNC 5206
yo 5205
Mall 5204
ญา@@ 5203
une 5202
145 5200
LU@@ 5200
125@@ 5199
8A 5199
ป๋า 5199
วอชิงตัน 5199
จังหวัดลพบุรี 5198
ดุสิ 5196
เหนี่ยว 5196
ปทุม 5195
รุด 5195
กำชับ 5193
ประจวบ 5193
Star@@ 5192
เหลา 5192
แจ๋ว 5191
ฮวงจุ้ย 5190
มุนี 5189
็บ 5187
สุภา 5186
สยองขวัญ 5185
ตั้งต้น 5184
ยึดติด 5184
แหล่ 5184
สัตหีบ 5183
sn@@ 5182
มรณะ 5181
2531 5179
Sm@@ 5179
เซา 5179
Active 5178
พระบรม@@ 5178
110@@ 5176
ร่อซูล 5176
มาลี 5175
Pack 5173
Girl 5172
ผลิตผล 5172
วาง@@ 5171
195 5169
Poly@@ 5169
ตัล 5169
PU 5168
ba 5168
็อก@@ 5168
ศรีลังกา 5167
File 5165
คณิต 5164
คลี่คลาย 5164
แอนฟิลด์ 5164
สำแดง 5163
้อง 5163
high 5162
ล้มละลาย 5162
aut@@ 5160
Ri@@ 5159
น้ 5159
พูน 5159
Ni@@ 5158
อิงค์ 5158
เบิร์ด 5158
แรน 5158
ater 5157
โชคชัย 5157
rem@@ 5156
LAN 5155
จุดแข็ง 5155
คัม 5154
ทันตแพทย์ 5154
Young 5153
จังหวัดสกลนคร 5153
die 5152
unc@@ 5152
ฉุด 5152
นิเวศน์ 5151
เปลี่ยนใจ 5151
สุเทพ 5150
ตำบลหนอง@@ 5149
ted 5148
una 5148
วด 5148
สแต@@ 5148
ู้ 5148
Net 5147
TV@@ 5145
“The 5145
ข่มขู่ 5144
Sil@@ 5142
her@@ 5138
1800 5137
ky 5137
ฎ 5137
Gen 5135
any 5135
Commerce 5134
entry 5134
ตติ@@ 5134
ปรี@@ 5134
จัก@@ 5132
อินท@@ 5132
กรรมฐาน 5129
สเซ@@ 5129
เซ็น@@ 5129
เวิร์ด 5129
อะมิโน 5128
job@@ 5127
ทรี@@ 5124
มั 5124
กัส 5122
ha@@ 5121
ปิ่นเกล้า 5121
กัดกร่อน 5120
ชาติพันธุ์ 5120
ei 5117
คู่หู 5116
ธัญบุรี 5116
onic 5114
ดินแดง 5114
FR@@ 5113
กิเลน 5113
พฤกษศาสตร์ 5112
บอร์น 5109
ประเทศเกาหลี 5108
พยาธิ@@ 5108
เนปาล 5108
ขน@@ 5107
ไฮบริด 5107
ชิลล์ 5106
ดั 5106
เภสัชกรรม 5106
โพน 5106
var 5105
ตะไคร้ 5105
ไอซ์แลนด์ 5105
เฮล@@ 5104
็น@@ 5102
Valgus 5101
จ้าว 5101
หนึบ 5101
ใหญ 5101
หายนะ 5100
has 5099
มัดจำ 5098
ว์@@ 5098
หว้า 5098
นิ่ว 5097
สันติสุข 5096
ฮัม@@ 5095
โปรเจ@@ 5095
ats@@ 5094
มนุษยศาสตร์ 5093
คัง 5092
ology 5091
เสริม@@ 5091
พญานาค 5089
สมเด็จพระสังฆราช 5089
ี่ยน 5089
๊น 5086
แอตเทิล 5085
Mail 5084
Met@@ 5084
หลิว 5084
โห@@ 5084
หลักทรัพย์ 5083
เบเก 5083
comm@@ 5082
เพียว 5082
ไทยรัฐ 5082
ละเลง 5079
Do@@ 5077
Hor@@ 5077
SSD 5077
พุทธศาสนิกชน 5075
des 5074
ทำท่า 5074
JO@@ 5073
ตำหนัก 5073
ร้าน@@ 5073
114@@ 5072
Tower 5072
PT@@ 5071
ออร์ 5071
พระอรหันต์ 5070
Saint 5069
ns 5068
หายตัว 5068
Square 5065
พารา 5065
ไก@@ 5065
คริ@@ 5064
ทบ 5064
ียน 5063
Conference 5062
อาซาร์ 5062
อืม@@ 5062
ATION 5059
๒๒ 5059
ทธ์ 5057
FL@@ 5056
2519 5055
dy 5055
พรีเมียม 5055
พิพัฒน์ 5055
่าน 5055
ทิงเจอร์ 5054
แหน 5053
Black@@ 5052
น้@@ 5052
เถ้า 5049
AY 5048
SB@@ 5048
สัมมา@@ 5048
โบรุสเซีย 5048
des@@ 5047
เวิร์ก 5047
AND 5046
225 5045
วารี 5044
เทจ 5044
พระราชกฤษฎีกา 5043
เกี่ยวพัน 5043
League 5042
ASD 5041
Pet@@ 5041
Ste@@ 5040
TE 5040
กลึง 5039
Bra@@ 5037
เลีย@@ 5037
บุญธรรม 5036
izer 5034
กะทันหัน 5034
เบื่อหน่าย 5034
บำนาญ 5033
พันทิป 5033
โอบ 5032
ลูกหมาก 5031
ih@@ 5030
ดวงชะตา 5029
บิ๊ก@@ 5029
165 5028
่อม 5028
สมเด็จ@@ 5027
ula 5026
คลึง 5026
เต่ง 5026
จาม 5025
สนน 5024
เพน 5024
เวชศาสตร์ 5023
วีร@@ 5022
Start 5021
ทม 5021
มอส 5021
แวง 5021
117 5020
ขุนพล 5020
แสง@@ 5020
ลักพา 5019
จังหวัดราชบุรี 5018
ซาลาห์ 5018
เสน@@ 5018
Platform 5017
กำมะหยี่ 5017
ดีเจ 5016
ร่วม@@ 5016
war@@ 5014
ทาก 5014
ช้านาน 5013
ตะกรุด 5013
203 5012
Oct 5012
โอน@@ 5012
ยว@@ 5010
วัดป่า@@ 5010
Pat@@ 5009
เพอร์ตี้ 5009
แหว 5009
แท้ง 5007
ออฟฟิต 5006
Mazda 5004
Tech 5000
ตติ 5000
มันน์ 4999
สเตเดีย 4999
เจี๊ยบ 4998
ming 4996
สพม. 4996
ไป@@ 4996
Golden 4995
ภาคพื้น 4995
ยุทธการ 4995
any@@ 4992
กตัญญู 4992
วิตก 4992
max 4990
เฮอร์@@ 4990
ํ@@ 4990
สตา@@ 4988
95@@ 4986
เคิล 4986
โซล่า 4986
Hotellook 4984
นินจา 4983
อึด 4983
XP 4982
วรา@@ 4982
083 4980
คาม 4979
จันท@@ 4979
ลำไย 4978
ษั 4978
สำนักงานตำรวจแห่งชาติ 4977
อึ@@ 4977
84@@ 4974
หลี 4973
จงใจ 4972
น็อต 4972
เชอร์@@ 4972
เปญ 4971
บาร์เซโลนา 4970
แน่ม 4970
เบี่ยงเบน 4969
แซล 4969
มาน@@ 4968
Del@@ 4966
ทัช 4966
Por@@ 4965
ปาฏิหาริย์ 4964
มิค 4964
อาร์ม 4963
คุณสามารถ 4962
ล็อต 4961
Le 4960
สำลี 4959
หล่อลื่น 4959
Island 4957
เกลียดชัง 4957
ช่า 4956
คู่@@ 4955
พิมพ์@@ 4955
ทอดพระเนตร 4954
รุ่ง@@ 4953
โปรโมต 4953
search 4952
hy@@ 4951
มัง@@ 4951
Ban@@ 4950
อินน์ 4950
ف@@ 4949
เกตุ 4949
Training 4947
คล้อย 4946
ชะอำ 4945
ยิน 4945
ric 4944
ส่งเสริม@@ 4943
กะเหรี่ยง 4942
ชัน@@ 4942
เท็น 4942
๊อก 4942
นครพน 4941
Sun@@ 4940
พฤกษ์ 4940
Mate 4939
oon 4939
รอม 4939
รับประกัน 4939
side 4938
ک@@ 4938
ท่าเรือ 4938
คาราบาว 4937
138 4936
ems 4935
จังหวัดน่าน 4935
ลูคัส 4935
เชฟ@@ 4935
ขยี้ 4934
จุลทรรศน์ 4934
CB@@ 4932
CEO 4932
ette 4932
วาเลน 4932
Cont@@ 4931
กรรม@@ 4931
ครุศาสตร์ 4930
มหาวิทยาลัยขอนแก่น 4929
แข@@ 4929
กาย@@ 4928
ด้วง 4928
รักใคร่ 4928
๗@@ 4928
ปิย@@ 4927
แอด@@ 4926
ใบ้ 4926
93@@ 4924
9B 4923
Powder 4920
รูปพรรณ 4920
หล้า 4920
ไทร@@ 4920
Uni@@ 4919
โดดเดี่ยว 4919
กราบไหว้ 4918
มร 4918
Company 4917
bal@@ 4917
วิว@@ 4917
ن 4916
บม 4915
ปากีสถาน 4915
แอ่ง 4915
Glass 4914
ปิดบัง 4913
ไค 4913
ไห 4913
Rose 4912
ปุ่น 4912
ธุ 4911
พัง@@ 4911
THAI 4910
อักขระ 4910
sam@@ 4909
Quality 4908
กาน 4908
มันสำปะหลัง 4908
ใฝ่ 4908
กระเด็น 4907
หาง@@ 4907
เทศนา 4907
เด็ก@@ 4906
vol@@ 4905
สล็อ 4905
หนองแขม 4905
เดิมที 4905
พิน 4904
ight@@ 4903
สมา 4903
วู 4902
Dark 4901
แก้@@ 4900
Forum 4899
สมใจ 4898
2518 4897
อป@@ 4897
พวงมาลัย 4896
๕@@ 4896
đ@@ 4894
ตั้ง@@ 4894
South 4893
อินเตอร์@@ 4893
ทิว 4892
โชคชะตา 4891
Fil@@ 4890
คเกอร์ 4890
จัดจ้าน 4888
hu@@ 4887
ปาร์ 4886
สัต@@ 4886
cell 4885
ala 4884
ซ.@@ 4882
๊า 4882
Sound 4881
ล่มสลาย 4880
Si@@ 4879
Secret 4877
aka 4877
mp4 4877
อินดี้ 4877
โว่ 4877
fil@@ 4875
เคว@@ 4875
BL@@ 4874
222 4873
จอ@@ 4873
Kids 4872
เขื่อน@@ 4872
แหลก 4871
Job@@ 4870
Summer 4870
รอดพ้น 4870
144 4869
York 4869
ตามใจชอบ 4869
ล้วนแล้ว 4869
่อย 4869
กิ๊บ 4867
ประเทศเวียดนาม 4867
Version 4866
ลูกครึ่ง 4866
เหลื่อมล้ำ 4866
height 4865
กีดขวาง 4865
ตรอก 4865
พจนานุกรม 4865
CON@@ 4864
ชื่นใจ 4863
ICE 4861
uki 4860
ใฝ่ฝัน 4859
บอบบาง 4858
เว็ป 4858
จรรยาบรรณ 4857
วะ@@ 4857
อุบัติ 4857
แพท 4857
Pri@@ 4856
กระหม่อม 4856
คฤหาสน์ 4856
เธฒเธ 4856
2530 4855
Benz 4854
titan 4854
PE@@ 4853
Battle 4852
bor@@ 4852
เจริญก้าวหน้า 4852
Event 4851
MM@@ 4851
Tw@@ 4851
หนาน 4850
ยูวี 4849
จิร@@ 4846
ผยอง 4843
กระทรวงคมนาคม 4842
ร่วมใจ 4842
กับดัก 4841
380 4840
MS@@ 4839
own 4839
Rock 4838
red 4838
เชือด 4838
goo 4837
แย่งชิง 4837
ไบโอ@@ 4837
วอร์ 4836
วอลเปเปอร์ 4836
ш@@ 4835
็อ@@ 4835
2018” 4834
IV@@ 4834
none 4834
โอเพ่น 4834
จีคลับ 4833
หัส 4833
mp@@ 4832
วิปัสสนา 4830
แพร@@ 4830
IO 4829
ft 4829
ศุ@@ 4829
สุริยะ 4829
อัมพาต 4829
TW@@ 4828
nam@@ 4828
ใบปลิว 4828
1994 4827
Fin@@ 4825
เพชรเกษม 4825
185 4824
Cat@@ 4824
ช่ 4822
Voice 4821
รัช 4820
ฮิลล์ 4820
Non 4817
ants 4817
form@@ 4817
ลียง 4817
Panasonic 4816
โปลี 4816
ink 4815
och@@ 4811
เสาะ 4810
255@@ 4809
Bay 4809
ผละ 4809
ida 4808
กาบ 4808
เสมอภาค 4808
จตุ@@ 4807
เปิ้ล 4807
เอเย่นต์ 4807
ซอฟท์ 4806
น์@@ 4806
จังหวัดเพชรบุรี 4805
เกีย 4805
ไข@@ 4802
­ 4801
ple 4799
ค์@@ 4799
จร@@ 4799
สมัครใจ 4799
งอน 4798
ฟูล 4796
ยง@@ 4794
ปั้มเพจ 4793
อันดามัน 4792
มนุษยชาติ 4790
โขก 4790
126 4789
กิริยา 4789
false 4788
คาร์บอนไดออกไซด์ 4788
เพียบพร้อม 4788
โอรส 4788
จิม 4787
สสส. 4787
Acer 4786
PORN 4786
г@@ 4786
แกล@@ 4786
Nike 4785
พร็อพ 4785
เอไอเอ 4785
read 4784
ع@@ 4784
192 4783
1970 4783
tiv@@ 4782
สโตส์ 4781
อเมซอน 4781
โจนส์ 4781
sor@@ 4780
สะดือ 4780
TER 4779
หยุดนิ่ง 4779
Gra@@ 4778
Ti@@ 4778
วีดี 4778
คณะกรรมการ 4776
ไวนิล 4776
วิง 4775
เว่ย 4774
ตรัสรู้ 4771
เอ้ย 4771
พิชัย 4769
รึเปล่า 4768
มัส@@ 4765
สตรีท 4764
len 4763
โมบาย 4763
Copyright 4762
นำร่อง 4762
บทเรียน 4761
Bas@@ 4760
ere 4760
ท่าน@@ 4759
สุขศึกษา 4759
แมนฯ 4759
Ret@@ 4757
จังหวัดระยอง 4756
ดุเดือด 4756
มังงะ 4756
erc@@ 4755
เมืองพัทยา 4755
084 4754
ads 4754
left 4753
thumbnails 4753
ual 4753
พันธกิจ 4753
ดริ@@ 4751
ва@@ 4750
ธนาคารกรุงเทพ 4749
เสมหะ 4749
เศ@@ 4748
วุธ 4747
แอ็คชั่น 4747
ฮาวาย 4745
เอ๊ย 4745
โก่ง 4745
พระที่นั่ง@@ 4744
วงศ์วาน 4744
๒๕๕๘ 4744
show 4743
โชคลาภ 4742
Image 4741
but@@ 4740
แจ๊ค 4740
วลัยลักษณ์ 4739
บ่ง 4738
ราม@@ 4738
แตร 4738
อุต@@ 4737
iti@@ 4736
พระธาตุ@@ 4736
ลดหย่อน 4736
อานุภาพ 4736
แพลตฟอร์ 4735
ASUS 4734
ins@@ 4733
านนท์ 4733
เนส@@ 4733
Hybrid 4732
asia 4732
ลาส 4732
สุขใจ 4732
ider 4731
yst@@ 4731
ั้น 4730
cont@@ 4729
วัต 4729
✔ 4729
Society 4728
ตะเคียน 4728
tu@@ 4727
ย่ำ 4727
ดร 4726
โข@@ 4726
เหร@@ 4725
220@@ 4724
ตวาด 4724
Ba@@ 4723
clo@@ 4723
well 4723
Rights 4722
จันทร@@ 4722
bur@@ 4721
State 4720
年@@ 4720
Crown 4719
gl 4719
หาเสียง 4719
อภิสิทธิ์ 4719
band 4718
ลายลักษณ์อักษร 4717
ไมตรี 4717
ire@@ 4716
ชาตรี 4716
โน้ม 4716
ซะ@@ 4715
สวิ@@ 4715
ฮยอน 4715
ze@@ 4713
สระแก้ว 4713
Ly@@ 4711
ซีรี่ส์ 4711
ont@@ 4710
ten@@ 4710
จอน 4710
lec@@ 4709
พระเจดีย์ 4709
ซูซู 4708
พระองค์เจ้า@@ 4708
สัมพันธวงศ์ 4708
ชัดแจ้ง 4706
ย่ 4706
แคลอรี่ 4706
304 4705
สเตนเลส 4705
Cas@@ 4704
і@@ 4704
อีซูซุ 4703
Memory 4702
กราบทูล 4702
จอง@@ 4702
ไอศ 4702
­@@ 4701
ธนาคารไทยพาณิชย์ 4700
โรงเรือน 4700
330 4699
Services 4698
ขี้ผึ้ง 4697
ยิบ 4696
แจ็คเก็ต 4696
ros@@ 4695
Easy 4693
129 4692
All@@ 4692
มิวสิ 4691
Lenovo 4690
ธำรง 4690
ม่ 4690
490 4689
สัณฐาน 4688
โอโซน 4687
มุ 4686
รม@@ 4686
series 4685
ка@@ 4684
ทรยศ 4684
protected 4683
พงศ์@@ 4683
ธ์ 4682
นายสม@@ 4682
son@@ 4681
บาสเกตบอล 4681
พอยท์ 4681
จังหวัดสุพรรณบุรี 4680
วรร@@ 4680
คด 4679
VO@@ 4678
smart 4678
5340@@ 4676
PD@@ 4676
พานิช 4675
หมอดู 4675
แบค 4675
คริสเตีย 4674
ลูกา 4674
CS 4672
ee@@ 4670
field 4670
๒๓ 4670
พัฒน@@ 4669
QR 4668
พลี 4668
Admin 4667
พระครู 4667
จู่ๆ 4666
๋น 4666
205 4665
lar@@ 4664
ขีปนาวุธ 4664
一@@ 4663
Pay 4661
ทธิ 4661
ประลอง 4661
Film 4660
กระจัดกระจาย 4660
Creative 4659
ก่ 4658
ยูดาห์ 4658
Cur@@ 4657
เวย์น 4656
83@@ 4655
กมล 4655
ประเทศมาเลเซีย 4655
ack@@ 4654
อานิสงส์ 4654
โลว์ 4654
ทรู@@ 4652
land@@ 4651
ซิดนีย์ 4651
วอร์@@ 4648
แฉก 4648
Villa 4647
over@@ 4647
← 4647
ครุฑ 4646
โทรล 4646
Lin@@ 4645
version 4645
แย้ง 4645
ars 4642
นาซี 4642
พระอาราม 4641
แรด 4641
เซนเตอร์ 4640
บุนเดส 4639
เกน 4639
ford 4638
image 4638
จับจ่าย 4637
ผงาด 4637
สส์ 4637
เงือก 4637
777 4635
Run 4635
มง 4634
สกอตแลนด์ 4634
Cent@@ 4633
ยวก 4632
๒๔ 4630
number 4629
red@@ 4629
เปร@@ 4629
ทะลวง 4628
ซ่าน 4626
CAR@@ 4625
เลา 4625
Focus 4623
SN@@ 4622
นับวัน 4622
เพน@@ 4622
ize 4620
ลูกกลิ้ง 4620
Edge 4619
eds 4619
สมเด็จพระนางเจ้าสิริกิติ์ 4618
พระพุทธบาท 4616
เรือ@@ 4616
oto 4614
จามร 4614
พญา@@ 4614
มิด@@ 4613
acy 4611
กระท@@ 4607
ปราศ 4607
หาม 4607
Pen@@ 4606
เธญ@@ 4604
แซ่ 4603
ech 4602
หวด 4602
๕๐ 4602
enlarge 4601
ระบำ 4601
อดใจ 4601
Slot 4600
Work 4599
ชนชาติ 4599
ปอล 4599
เกล 4599
ail 4598
ดีเวล 4597
ทวีปเอเชีย 4596
รถ@@ 4596
390 4595
ดึงดูดใจ 4594
สเปก 4594
sky 4592
ว่า@@ 4590
Bor@@ 4588
อะลูมิเนียม 4588
สตี@@ 4587
หยุดยั้ง 4587
1988 4586
OP@@ 4586
บูม 4586
หนืด 4586
ت 4584
Jul 4583
ถา@@ 4583
ญชี 4582
นามธรรม 4582
ATM 4581
й@@ 4581
อต@@ 4581
็ต@@ 4581
Gel 4578
ปรนนิบัติ 4578
วิบาก 4578
Samara 4576
วิวัฒน์ 4576
ียง@@ 4576
lov@@ 4575
о 4575
water 4574
ึก 4574
ขาน 4573
เบิร์@@ 4573
โช๊ค 4573
บิวตี้ 4572
พุทธศตวรรษ 4572
กร้าน 4571
ag 4570
โพธิ์@@ 4569
พราง 4568
ALL 4567
อย่ 4567
Museum 4566
ถึ 4566
นิติบัญญัติ 4566
Ob@@ 4565
ประยุทธ์ 4565
ย่น 4565
720 4564
ปวส. 4564
ไนโตรเจน 4564
SANRIO 4563
1995 4562
SPF 4562
las@@ 4562
191 4560
จู๋ 4560
ทรัพย์สมบัติ 4559
สุม 4559
Dec 4556
Ky@@ 4555
ประเทศเกาหลีใต้ 4555
ern@@ 4554
เวกเตอร์ 4554
สตรี@@ 4553
hi 4552
ธงชัย 4552
ri 4551
จ.นนทบุรี 4551
โคลง 4551
ของกลาง 4550
127 4547
ื่@@ 4547
245 4546
ตะเกียง 4546
สุดา 4546
สุนทร@@ 4546
ส่งเสีย 4546
player 4545
IBCBET 4544
กรุงโรม 4544
บาก 4544
ศิลปศาสตร์ 4544
โผ 4544
154 4543
wood 4543
ณัฐ 4543
พินาศ 4543
ment@@ 4542
thing 4542
สวีท 4542
เมืองทอง 4542
RT 4541
ปิยะ@@ 4541
PRO 4540
esh@@ 4540
เกียวโต 4540
โอกาศ 4540
Dep@@ 4539
ote 4539
พราย 4539
BC 4538
product 4537
span 4537
โดนัท 4535
Comm@@ 4534
DNA 4533
บ่อ@@ 4533
รู้ใจ 4531
ึง 4531
Mi 4530
low@@ 4530
MAR@@ 4529
วย@@ 4528
สุขภาวะ 4528
เยี่ยมยอด 4527
157 4525
Fi@@ 4525
อั้ม 4525
Mel@@ 4524
SM 4524
xvideos 4524
MR@@ 4522
ทอดทิ้ง 4522
ขนุน 4521
มรสุม 4520
อะนิเมะ 4519
โตโย 4518
Mercedes 4517
วัตกรรม 4517
Solution 4515
cas@@ 4515
กสิกร 4515
ทริก 4515
อดัม 4514
วด@@ 4513
ico 4512
ภิรมย์ 4512
Off@@ 4511
TA@@ 4510
location 4509
ตายตัว 4509
พระบาทสมเด็จพระ@@ 4509
ภาษีอากร 4509
SI 4508
เมืองเชียงใหม่ 4508
วัลย์ 4507
ı@@ 4506
1960 4505
ภริยา 4505
ราชบัลลังก์ 4505
cu@@ 4504
วันที่ 4503
เม่ 4503
ทุนทรัพย์ 4502
แชน 4502
men 4501
Inc 4500
Not 4499
วุ่น 4499
สะท้าน 4498
เบอร์ลิน 4498
ปฐม@@ 4497
จีวร 4496
ซวย 4496
Bro@@ 4495
พระสมเด็จ 4494
รัน@@ 4493
480 4492
Jetradar 4492
151 4491
Asian 4490
uma 4490
บางกอกน้อย 4490
299 4489
atch@@ 4489
ชมพู่ 4489
บจก. 4488
Pass 4487
ชุม@@ 4487
โตร@@ 4487
หล่อเลี้ยง 4485
กรร@@ 4484
ปวช. 4484
สำนักข่าว@@ 4484
Firefox 4483
IB 4482
Rate 4482
ซีอีโอ 4481
โหว่ 4481
Nikon 4480
พยาบาล@@ 4478
โป้ง 4478
Innovation 4477
สโต@@ 4476
weight 4475
มง@@ 4475
ีม 4475
down 4474
Pinworms 4473
สปา@@ 4473
อินทร@@ 4473
บีที 4472
iko 4471
พี่เค้า 4471
มะนา 4471
เนี้ย 4469
Miss 4467
โต้ง 4467
Title 4465
บท@@ 4465
สมาร์ 4465
ครอบ@@ 4464
บึงกุ่ม 4464
เทรดเดอร์ 4464
ขืน 4463
็ด@@ 4463
rate 4462
แก้ตัว 4462
kr@@ 4460
กาฬ 4460
250@@ 4459
LTD 4458
คิม@@ 4458
เกวียน 4458
2527 4456
โพธิ@@ 4455
ไดร์ฟ 4455
Universal 4454
บรม@@ 4454
เบี้ยว 4454
เสริฟ 4454
Dec@@ 4453
East 4453
mer 4453
ตราสาร 4453
ปัก@@ 4453
tagged 4452
โภ@@ 4451
Des@@ 4450
คาสิ 4450
คณะแพทยศาสตร์ 4449
ปลง 4449
สาคร 4449
MI@@ 4448
แมรี่ 4448
Hal@@ 4447
UP 4447
จอห์น@@ 4447
ทะลัก 4447
มหาบัณฑิต 4446
132 4444
IM 4444
พื้นที่การศึกษา 4444
ยูนิ@@ 4443
อิง@@ 4443
August 4441
Eye 4441
เปราะ 4440
มังคุด 4439
อุดร 4439
แอง@@ 4437
พันธบัตร 4436
อารีน่า 4436
ซุน@@ 4435
้ด 4434
♪ 4434
คลาด 4433
ควน 4433
ปปส. 4433
zz@@ 4432
ศิลปกรรม 4432
พระจอมเกล้า 4431
แฟล 4431
Sl@@ 4428
กฟผ. 4428
บิว 4428
แอสซิสต์ 4428
sa@@ 4426
IE 4425
Index 4425
หว่าน 4425
คอมมิชชั่น 4424
HTML 4422
bb@@ 4422
ฟุ้ง 4421
เวิร์@@ 4421
Made 4420
กลาโหม 4420
Section 4419
CM 4418
EST 4418
Don@@ 4417
215 4416
IQ 4416
update 4416
นใจ 4416
อริ 4416
อ่อนไหว 4416
ฟฟ์ 4415
ไห่ 4415
Om@@ 4414
สารวัตร 4414
acid 4412
ira 4412
กรมการ@@ 4412
สุขอนามัย 4412
เคราะ 4412
เธฑเธ 4412
จก 4411
อุดม@@ 4411
อุปโภคบริโภค 4411
สภากาชาดไทย 4410
ธัญ@@ 4409
1080p 4408
นายวิ@@ 4407
บุค 4407
อีซี 4407
แข 4407
256 4405
เป๊ 4405
๊ด@@ 4405
Mil@@ 4404
หิน@@ 4404
ูน 4404
Order 4403
Sim@@ 4400
สร้างเสริม 4400
ีด 4400
เอ๊ะ 4399
โซเดียม 4399
hellip 4398
ด็อก 4398
พยัญชนะ 4398
adi@@ 4397
รัฐศาสตร์ 4397
เด่นชัด 4397
บุญคุณ 4396
หมอย 4396
เดร@@ 4396
Stop 4395
หว่า 4395
092 4394
2532 4394
ส.ว. 4394
に@@ 4394
Gaming 4393
ปริยาย 4392
เชลย 4392
Snapdragon 4391
คอนโซล 4391
October 4390
ona 4390
topic 4389
รื้อถอน 4389
เอ้า 4389
รักษาพยาธิ 4388
โระ 4387
lock 4386
วัล@@ 4386
เฮน@@ 4386
156 4385
active 4385
กูรู 4385
คับคั่ง 4385
ยยย 4385
Reserved 4384
สีลม 4384
วิวาห์ 4383
แตงกวา 4383
โวลต์ 4383
ult 4382
ถ้วนหน้า 4382
เยี่ย 4382
Ok@@ 4381
ควิ@@ 4381
กระเป 4380
ซั่น 4380
GU@@ 4379
Major 4379
ç@@ 4379
Ry@@ 4378
เฟล@@ 4378
Hi@@ 4377
ประเทศเยอรมนี 4377
ath 4376
tri@@ 4376
พลัดพราก 4376
Gl@@ 4375
las 4375
กระจุก 4374
เฟิร์ม 4374
ทรั@@ 4373
สัญชาตญาณ 4373
ning 4372
UK@@ 4371
iki 4371
ทีวี@@ 4371
ศ.@@ 4371
เล็ก@@ 4371
ไต่สวน 4370
ce@@ 4369
 4368
ตร้า 4367
หวั่นไหว 4367
Spa 4366
บางสิ่งบางอย่าง 4366
โครเอเชีย 4365
Rec@@ 4364
ws 4364
ผ่อง 4364
โมนา 4364
ไวยากรณ์ 4364
Sky@@ 4363
Wall 4362
กลั้น 4361
bro@@ 4357
เสาเข็ม 4357
แพทยศาสตร์ 4357
เอ. 4355
GO 4354
ปราสาท@@ 4354
เธฒ@@ 4354
133 4353
หรี่ 4352
ero 4351
ไซนัส 4351
Diamond 4349
ธุดงค์ 4349
๒๕๕๗ 4349
แห้งแล้ง 4348
นาถ 4347
ลเลอร์ 4347
หว 4347
สุขสันต์ 4346
กลา@@ 4345
ปล้อง 4345
กระทรวงวัฒนธรรม 4344
เทค@@ 4344
เพรียว 4344
กัว 4343
ทัพ@@ 4343
พั 4343
TM 4342
คริสต์ทศวรรษ 4342
แบรนด์เนม 4342
margin 4341
oph@@ 4341
จิตรกร 4341
ซอล 4341
driver 4340
ny@@ 4340
2525 4339
ชอน 4339
สะบัด 4339
ทั้ง@@ 4338
ฮาร์ดแวร์ 4337
หมู่คณะ 4336
118@@ 4335
ace@@ 4335
tur@@ 4335
บดี 4335
ราษฎร์บูรณะ 4334
เมียร์ 4334
ครอส 4333
Feb 4332
UI 4332
ดาร์@@ 4332
ถ่าย@@ 4331
สวี 4331
ไทยรัฐออนไลน์ 4331
590 4330
space 4330
Home@@ 4328
table 4328
Sen@@ 4327
กองทุน 4327
อุ้ง 4327
โอ๊ต 4327
กติ 4324
Ur@@ 4323
คล่องแคล่ว 4322
ถือ@@ 4322
หุ@@ 4322
ัม 4322
ลิต 4321
หัวแม่ 4321
Ko@@ 4320
บง 4320
สมุ@@ 4320
Tele@@ 4319
166 4318
เวลล์ 4318
950 4317
ook 4317
หลี่ 4316
เสถีย 4316
RS 4315
ซัลโว 4315
Sbobet 4314
ราฟา 4312
ci@@ 4311
ปัญ@@ 4311
พล.ต.อ.@@ 4311
มาตราฐาน 4311
แลน@@ 4311
HONDA 4310
ber 4310
นิวยอร์ค 4310
เวิ@@ 4310
136 4309
ต้น@@ 4309
ปิ่น 4309
เหลียว 4309
Racing 4308
chi 4308
drive 4308
What 4307
ียา 4307
เดียน 4307
โง@@ 4307
โอ๊ย 4307
ไดรเวอร์ 4307
GL@@ 4306
คัด@@ 4306
พาวเวอร์ 4306
ality 4305
ทิวภาพ 4305
ี่ย@@ 4305
เกา@@ 4305
โซนิค 4305
anna 4304
lo 4304
วาน@@ 4304
AEC 4303
Spring 4303
Vis@@ 4303
มัลติ@@ 4303
อากร 4302
ใน@@ 4302
CK@@ 4301
Pantip 4301
ฮอกไกโด 4301
แฟรงค์ 4301
ธรณี 4300
ลอส 4300
Mai 4298
tar@@ 4298
ครี@@ 4298
ฝึก@@ 4298
ก.@@ 4297
Chelyabinsk 4296
คลาไคล 4296
หัวหอม 4296
Dead 4294
Hall 4294
โจรสลัด 4294
Pu@@ 4293
คู่ใจ 4293
สดุดี 4293
ล้นหลาม 4292
July 4291
iGetWeb 4291
โยเกิร์ต 4291
osis 4290
Promotion 4289
บีช 4289
ประหนึ่ง 4289
อัลกุรอาน 4288
Beta 4287
ฮวง 4287
สรร@@ 4286
บวงสรวง 4285
ยัก 4285
ไลค์เฟส 4285
161 4284
its@@ 4284
BNK48 4283
ดิส@@ 4282
เสบียง 4282
London 4281
บางพลัด 4281
ชนวน 4280
แวม 4280
คอนเทนเนอร์ 4279
ระด 4279
คอล@@ 4278
เกด 4278
3M 4277
mil@@ 4277
ชวา 4277
CU@@ 4275
ก็@@ 4274
Sukhumvit 4273
xnxx 4273
โข 4273
๒๘ 4273
BS 4272
Inf@@ 4272
กรุงปารีส 4271
เซาธ์ 4271
Final 4270
ball 4270
ก๊@@ 4270
ด้@@ 4270
บัค 4269
ละหมาด 4269
ันต์ 4269
screen 4268
ประเทศสิงคโปร์ 4268
เทพารักษ์ 4268
เนะ 4268
SL 4267
บลูส์ 4267
Laser 4266
ฟองน้ำ 4266
วิงวอน 4266
้นท์ 4266
Ca@@ 4265
UM 4265
ig 4265
dvd 4264
Anti@@ 4263
Linux 4263
ทรรศนะ 4263
ภาค@@ 4263
��������@@ 4263
April 4262
เบ็ค 4262
ไดนามิก 4262
girl 4261
post@@ 4260
Che@@ 4259
Vitamin 4259
ages 4259
ms@@ 4259
พระบารมี 4259
เพจเพจ 4259
่อง@@ 4259
Print 4258
ฟังก์ 4258
ตั้งตัว 4257
เมะ 4257
ปิศาจ 4255
PI@@ 4254
ทลาย 4254
Guide 4253
network 4253
กั๊ก 4253
ยาห์ 4253
วัต@@ 4252
ออส@@ 4252
แพลน 4251
ashi 4250
SHOP 4249
ครูบาอาจารย์ 4249
ชั่ว@@ 4249
Lee 4248
boy 4247
ever 4247
good 4247
สาธุ 4247
แคระ 4247
Energy 4246
pp@@ 4246
2529 4245
first 4244
ปแบบ 4244
เอโดะ 4244
tw@@ 4243
ре@@ 4242
ซอมบี้ 4241
อุปทาน 4241
เบต้า 4239
ox 4238
ดีวีดี 4238
สิ้นเปลือง 4238
เลต 4238
โธมัส 4238
็อง@@ 4238
exp@@ 4237
คิน@@ 4237
ตู่ 4237
ban@@ 4236
ยูนิต 4236
สก์ 4236
ปป์ 4233
อาราม 4233
เบลอ 4233
๋ม 4233
Fund 4232
su 4232
ตุลา 4232
MAN 4231
her 4230
กิจวัตร 4230
เต้นท์ 4230
ธรรมเนีย 4229
ลาบ 4229
ตระ@@ 4228
อุรุกวัย 4228
เผยแผ่ 4228
แส 4227
ters 4225
West 4224
กระจ@@ 4224
ลัก@@ 4224
หางจระเข้ 4224
มิวสิก 4223
เปอร์เซ็น 4223
เธก 4222
เวช@@ 4222
็กซ์ 4222
dia 4221
set@@ 4220
เมือ 4220
เหลียง 4220
ศิลป 4219
oku 4218
แยม 4218
๑๐๐ 4218
สตีล 4217
เดสก์ 4217
GT@@ 4216
เรียม 4215
ซิ่น 4214
ตะเข็บ 4214
Buy 4213
CP 4213
กระด้าง 4213
ศึกษาเล่าเรียน 4213
สมศักดิ์ 4213
2D 4212
พัวพัน 4212
Bet@@ 4211
ราชเทวี 4211
แตน 4210
digital 4209
ปั่นไลค์ 4209
อรรถ@@ 4209
กวาดล้าง 4207
ฟิล@@ 4206
AE 4205
based 4205
พิศ 4205
พื้นที่การ 4205
Academy 4204
Arts 4204
เอกชัย 4204
เสียเปรียบ 4203
1991 4201
เด้า 4201
ทัศนศิลป์ 4200
ปั้มเพจเฟส 4200
แม็ค@@ 4200
หว่าง 4198
ไธ 4198
139 4197
Ice 4197
ซูบิ 4197
ยอ@@ 4197
ผักชี 4196
แอคชั่น 4196
Hel@@ 4194
๔@@ 4194
������@@ 4194
lot 4193
วิทยฐานะ 4193
available 4192
อำเภอบ้าน@@ 4192
กาญจนาภิเษก 4191
พระสัมมาสัมพุทธเจ้า 4191
2523 4190
กระทรวงอุตสาหกรรม 4190
ท.@@ 4190
Nov@@ 4189
บะหมี่ 4189
แอป@@ 4188
ถก 4187
เด็ด@@ 4187
ไขว้ 4187
ครั@@ 4186
เกียรติบัตร 4186
รถไฟ@@ 4185
。 4185
ฝาผนัง 4184
ลาด@@ 4184
ล้อเลียน 4184
เยาวราช 4184
แกรนิต 4184
โอบ@@ 4184
CT@@ 4183
ปป@@ 4183
Great 4182
ท็ 4182
best 4181
จังหวัดแพร่ 4181
ถั่ง 4181
Mat@@ 4180
2528 4179
true 4179
จจ 4179
152 4178
Name 4178
Printer 4178
ที่รัก 4178
เชซ 4176
URE 4175
AZ@@ 4174
internet 4174
ดาม 4174
ทำลายล้าง 4173
มหาวิทยาลัยมหิดล 4173
IoT 4172
เบเกอรี่ 4172
GE 4171
Gallery 4171
ครั้งคราว 4171
พระธิดา 4171
June 4170
สั่งสม 4170
หอม@@ 4170
B3 4168
She@@ 4166
ชี้@@ 4166
เงื่อน 4164
See 4163
ization 4163
นีย์ 4163
โบรชัวร์ 4163
OR 4162
Tom@@ 4162
gre@@ 4162
เวง 4162
Jazz 4161
เหี่ยว 4161
hd@@ 4159
กลาส 4159
เศส 4159
เอสเอ็ม 4159
จั่ว 4158
อัป@@ 4158
Vit@@ 4157
net@@ 4157
จุ้ย 4157
ชะตากรรม 4157
ho@@ 4156
สวา@@ 4156
เฉลิม@@ 4156
Association 4155
ประสก 4155
แอร์ไลน์ 4155
Ram@@ 4154
คริสต@@ 4154
ปล 4154
เกริ่น 4154
เธอร์ 4154
เทอ 4153
BM@@ 4151
พอควร 4151
พัฒน 4151
ราก@@ 4151
สกัดกั้น 4151
เจล@@ 4151
แคช 4150
ภัท 4149
เอเชีย@@ 4149
ese 4148
คุณหญิง@@ 4148
080 4147
OK@@ 4147
ชวด 4147
IELTS 4146
ตะขอ 4146
สังคมนิยม 4146
ez@@ 4145
คลำ 4145
ิ่น 4144
port@@ 4143
ste@@ 4143
พราก 4143
มายา 4143
แร 4143
dep@@ 4142
Location 4141
อำ 4141
เอาเปรียบ 4141
ผล@@ 4140
สนามบิน@@ 4140
ฉีกขาด 4139
FOR@@ 4138
Press 4138
มื 4138
ยี่หร่า 4138
อัฟกานิสถาน 4138
อัมพวา 4137
big 4136
บ่ม 4136
eth@@ 4135
กวนใจ 4135
พลาซ่า 4135
กุ๊ก 4134
กน 4133
ครั 4133
คัม@@ 4133
ล็อบบี้ 4133
หลัก@@ 4133
ฮัก 4133
โบล 4133
0700 4132
ฉุน 4132
บิดเบือน 4132
เกาะช้าง 4131
ทาวเวอร์ 4130
เห็บ 4130
ทุ่น 4129
FX 4128
rel@@ 4128
บั้น 4128
ประพาส 4128
ลอตเตอรี่ 4128
ล้ำลึก 4128
Ven@@ 4127
จังหวัดสระบุรี 4127
หม่า 4127
เม้นต์ 4126
ศาสน@@ 4125
FB 4124
ore@@ 4124
ตลา 4124
มาส์ก 4124
HR@@ 4123
Kam@@ 4123
เบ็ดเสร็จ 4123
Restaurant 4122
Sn@@ 4122
ฟาน 4122
ออยล์ 4122
จอร์@@ 4120
มลทิน 4120
ขอ@@ 4119
สถิตย์ 4119
อุดมคติ 4119
เอ็นเตอร์ 4119
็ง@@ 4119
Heart 4117
171 4116
หนักหน่วง 4116
ข้า@@ 4115
ดารา@@ 4115
เหอ 4115
สวอน 4114
หูด 4114
ซื้อหา 4113
ขบ 4111
ر 4110
เทคโนโลยี@@ 4110
โพธิ 4110
GM 4109
Level 4109
Make 4109
price 4109
เลื่อง 4109
พระบรมมหาราชวัง 4108
ยอด@@ 4108
Place 4107
Syn@@ 4107
mi 4106
พิมพ์ดีด 4106
สตัน 4106
กระทรวงยุติธรรม 4105
ซอฟต์ 4103
วอเตอร์ 4103
เล่นงาน 4103
159 4102
Acc@@ 4102
สะโพ 4101
แตกหัก 4101
แมลงวัน 4101
Is 4100
ering 4100
ปาเลสไตน์ 4098
อื้อ 4098
Value 4097
ทรุดโทรม 4097
กระหรี่ 4096
ซึมซับ 4096
clip 4095
ถือครอง 4095
หม่อง 4095
ฮาร์ดดิสก์ 4095
โดนัลด์ 4095
นาร์ 4094
พลาซา 4094
วางไข่ 4094
ฅ 4093
บัล 4093
รณ 4093
เด็น 4093
เรือง@@ 4092
ตั้ม 4090
วนเวียน 4090
ชีวภา 4089
ราชอาณาจักรไทย 4089
…@@ 4089
กม 4086
จิ้ง 4086
ภูเขา@@ 4086
CF@@ 4085
Lake 4085
Micro@@ 4084
ซาบซึ้ง 4084
ียน@@ 4084
Ha@@ 4083
Je@@ 4082
ซิม@@ 4082
เกลือแร่ 4082
โกโก้ 4082
โลง 4082
anda 4081
Blu@@ 4080
hal@@ 4080
MM 4079
Account 4078
Voronezh 4078
leg@@ 4078
กิม 4078
ประคบ 4078
AIR 4077
จังหวัดพะเยา 4077
เกษ@@ 4077
บดินทร 4076
เซา@@ 4076
Jan 4075
si 4075
2515 4073
EM 4073
สตู 4073
thor 4072
how 4070
เด้ 4070
boo@@ 4069
ปราณ 4069
พู@@ 4069
ин@@ 4067
ดาวิด 4067
ฟอนต์ 4067
ret@@ 4066
นฤมิต 4066
lip@@ 4065
ซัม@@ 4065
ปลาแซลมอน 4065
วู้ด 4065
Ken@@ 4064
เดบิต 4064
ประชัน 4063
ปุระ 4063
windows 4062
เอย 4061
tical 4060
เซิร์ฟ 4060
Wal@@ 4059
วาล 4059
วิไล 4059
mor@@ 4058
หะ@@ 4057
เทคโนโลย 4057
ตติ้ง 4056
แมชชีน 4056
Lens 4055
Pool 4055
ยีสต์ 4055
ราชา@@ 4055
Ball 4054
Med@@ 4054
Oc@@ 4054
จุฬาฯ 4054
สับเปลี่ยน 4054
โยธิน 4054
َ@@ 4053
ทุก@@ 4053
ศธ. 4053
กรมสรรพากร 4052
Ten@@ 4051
DE 4050
rig@@ 4050
win 4050
สุขภัณฑ์ 4050
141 4049
ซลาตัน 4049
ไตร่ตรอง 4049
จำพรรษา 4047
เถระ 4047
เอเยนต์ 4047
802 4045
Fan 4045
group 4045
สงบเรียบร้อย 4045
ดาวเคราะห์ 4044
โช่ 4044
แล็ป 4043
he 4042
รัม 4042
ใด้ 4042
م 4040
บำเหน็จ 4040
พัช 4040
และสิ่งแวดล้อม 4040
พักพิง 4039
ลงเอย 4039
ney 4037
เซลส์ 4037
เมคอัพ 4036
เหยี่ยว 4036
del@@ 4034
หน้ 4034
ทำเนียบรัฐบาล 4033
mo 4032
อิอิ 4032
800@@ 4031
ฮอลแลนด์ 4031
เคมีภัณฑ์ 4031
phlebectomy 4030
เห็ด@@ 4030
แอนด์@@ 4030
1993 4029
ปอย 4029
เบาบาง 4029
เปิ 4029
เกียรติศักดิ์ 4028
MIN@@ 4027
ค้า@@ 4027
แบร์ 4027
พระราชธิดา 4026
Fire 4025
Wr@@ 4025
131 4022
ทำให้ 4022
แยะ 4021
ไม๊ 4021
Wars 4020
ration 4020
หมดสิ้น 4020
หาว 4020
ental 4019
review 4019
tal@@ 4019
พักอาศัย 4019
API 4018
sem@@ 4017
อสโก 4017
เรศ 4017
ล๊อค 4016
mal@@ 4015
จ.ปทุมธานี 4015
ตะวันออกกลาง 4015
มะกรูด 4015
เน็ท 4015
เบาะแส 4015
0000@@ 4014
6s 4014
Total 4013
วงค์ 4013
ators 4012
ign@@ 4012
มิตร@@ 4012
สังเวียน 4012
Exchange 4011
TOP 4011
2526 4010
erry 4010
เปรู 4009
เม้าส์ 4009
Private 4008
การค้า 4008
ซัป 4008
สำหร 4008
หมดจด 4008
....... 4006
2516 4006
Big@@ 4006
วรรณะ 4006
ben@@ 4005
สวิทช์ 4002
เกิ้ล 4002
แอฟริกาใต้ 4002
Mix 4001
ij@@ 4001
พันธ@@ 4001
หัก@@ 4001
เคล 4001
ดง@@ 4000
เบียดเบียน 4000
ท่าอากาศยาน@@ 3999
วุฒิ@@ 3999
เบา@@ 3999
xx@@ 3998
ผิ 3998
เฟิร์น 3998
RPG 3996
ดอ@@ 3995
บก. 3995
ational 3992
ประตูน้ำ 3992
สมมติฐาน 3992
Cat 3991
Exp@@ 3991
จริ@@ 3991
รมย์ 3991
สาธารณภัย 3991
134 3990
ธาน 3990
อรรถรส 3990
Rob@@ 3989
fi@@ 3989
เสมา 3989
153 3988
Main 3988
นุกูล 3988
Pad 3987
ect 3986
ขอบ@@ 3986
คิงส์ 3986
MacBook 3985
พระพุทธ 3984
ินี 3984
เอาตัวรอด 3984
โมโน 3984
ตาย@@ 3983
เลาะ 3983
hammer 3982
การเมือง 3982
เมลล์ 3982
Charger 3981
Kit 3981
จาร@@ 3981
พร้าว 3981
รัชทายาท 3981
ปล่อง 3980
ฟิลเตอร์ 3980
เทอร์โบ 3980
Two 3978
ro89 3978
Mad@@ 3976
บันดาล 3975
เซอร์เบีย 3975
Password 3974
lar 3974
กง@@ 3974
จับใจ 3974
พย์ 3973
พลับพลา 3972
พันธะ 3972
Sensor 3971
ญญ@@ 3971
ปรองดอง 3971
ศึกษาธิการ 3971
นครหลวง 3970
สก๊อต 3970
สพ@@ 3968
ไต@@ 3968
น้อยใจ 3967
พาล 3967
มรกต 3967
ร่าย 3966
จร้า 3964
ทศ 3964
ส่ง@@ 3964
only 3963
กษ@@ 3963
จ.นครปฐม 3963
ยุทธวิธี 3963
ือง 3963
กระบอง 3962
หนู@@ 3962
นวน 3961
วาร@@ 3960
ศรีวิชัย 3960
Solar 3959
ids 3959
Error 3958
à¹ 3958
วิเชียร 3958
ารี 3958
แผนผัง 3958
แฟลกซ์ 3957
see 3956
ทัต 3956
อคติ 3956
ยั 3955
ยี@@ 3955
cover 3954
แชมเปียนส์ 3954
ไฮด 3954
SF 3953
Smart@@ 3953
oma 3952
สฺ@@ 3952
ปัญญา@@ 3950
ปิยะ 3950
สมาคมฟุตบอล 3950
กรมพัฒนา 3949
港@@ 3949
star@@ 3948
к 3948
เบญจ@@ 3948
เป็นอันขาด 3948
vel@@ 3947
อรีน 3947
ทับ@@ 3946
แอพฯ 3945
โฟร์@@ 3944
มลายู 3943
Work@@ 3942
call 3942
จัดแจง 3942
สามีภรรยา 3942
Advanced 3941
MB@@ 3941
ely 3941
สรา 3941
Contact 3940
น้ำผึ้ง 3940
ลูกเรือ 3940
วชิร@@ 3940
เซท 3940
เลคชั่น 3940
งใจ 3939
ville 3938
เมท 3938
ties 3937
ton@@ 3936
Knowledge 3935
ks@@ 3935
ถีบ 3935
๊ต 3935
shi 3934
у 3934
ดำริ 3934
à@@ 3932
คลอ 3932
ปราศรัย 3932
เบ็ท 3932
้ม@@ 3931
ль@@ 3930
เชส 3930
เหิน 3930
his 3929
โลก@@ 3929
ไรท์ 3929
333 3928
Rel@@ 3928
แซ 3928
OL@@ 3927
บาด@@ 3927
พักดี 3927
ล่ 3927
อาลี 3927
via 3926
ทน@@ 3926
ซิว 3925
Original 3923
Thrombophlebitis 3923
4000 3922
ตำหนิติเตียน 3922
Hz 3921
Town 3921
สกล 3921
คุน 3920
เลือดขอด 3919
คกี้ 3918
วิกิพีเดีย 3918
นิธิ 3917
บวร 3917
บิณฑบาต 3917
ฮอล 3917
ito 3916
ควีน 3916
ฒ@@ 3916
Crystal 3915
last 3915
ทวิ 3914
สปป. 3914
็ท 3914
Wat@@ 3913
elo@@ 3913
ทะเล@@ 3913
ер@@ 3912
ima 3911
ock 3911
today 3910
กรน 3910
JAV 3907
วัณโรค 3907
คร่อม 3906
จัดทำ 3906
ประดู่ 3906
tube 3905
กกก 3904
ธารา 3904
เร็ธ 3904
การบ้าน 3903
ซี่โครง 3903
ตะเกียบ 3903
ool 3901
เจ้าแม่ 3901
ส้มตำ 3900
人@@ 3900
310 3899
Sup@@ 3899
137 3898
ome 3898
อับอาย 3898
ราชอาณาจักร@@ 3897
มโน 3896
MD@@ 3895
ยิมนาสติก 3895
อัลมอนด์ 3895
Nan@@ 3894
กระติก 3894
ริเวอร์ 3894
ศาลปกครอง 3894
พระกริ่ง 3893
พนักงานเจ้าหน้าที่ 3892
2520 3891
Da@@ 3891
End 3891
ซักถาม 3891
posted 3890
โสม@@ 3890
คร่า 3889
วินโดวส์ 3889
ฟิลเลอร์ 3888
Explorer 3887
Last 3887
ham 3887
wor@@ 3887
พระชนมายุ 3887
Kan@@ 3886
NO 3886
Spec@@ 3886
กังวลใจ 3886
อัพโหลด 3885
Electric 3884
Head 3884
ite@@ 3884
กะลา 3884
มหาวชิรา 3884
แฟกซ์ 3884
โพล@@ 3884
158 3883
á 3883
หทัย 3883
ฮุ@@ 3883
Bang@@ 3882
ue@@ 3882
พสกนิกร 3882
ก้าวร้าว 3881
ฮิว@@ 3881
ัก@@ 3881
ื่อง 3881
Desktop 3880
เอชไอวี 3880
B0 3879
BE 3879
Dress 3879
ender 3879
Bearing 3878
iTunes 3878
ม่าย 3878
HE@@ 3877
del 3877
mak@@ 3877
กด@@ 3877
ло@@ 3876
ผุ้ 3876
แจกัน 3876
Tro@@ 3875
Zero 3874
กบ@@ 3874
กางเขน 3874
ของ@@ 3874
Gift 3873
บ๊วย 3873
ฟิว 3873
โฉบ 3873
generic 3871
นภา 3871
ประชิด 3871
ups 3870
265 3869
กำมะถัน 3869
มณี@@ 3868
วาไรตี้ 3868
ฝึกสอน 3867
เบคอน 3867
เยี่ยง 3867
market 3866
สแตน@@ 3866
ys 3865
ปรางค์ 3865
หมู่บ้าน@@ 3865
หม้าย 3865
SPORT 3864
vit 3864
อมร@@ 3864
Hard 3863
Metal 3863
PLUS 3863
display 3863
mi@@ 3863
til@@ 3863
สึนามิ 3863
TC@@ 3862
fashion 3862
มาลา@@ 3862
องการ 3862
กรุงธนบุรี 3861
ดล 3861
ยานนา 3861
CSR 3860
=@@ 3859
กิล 3859
หมู่เกาะ 3859
เชียงคาน 3859
เฟด 3858
ฐา@@ 3855
ฟท์ 3855
Pap@@ 3854
มาณ 3854
Pure 3853
อุทยาน@@ 3853
172 3852
BU@@ 3852
ELISA 3852
Living 3852
รัต@@ 3852
ز@@ 3851
วัตถุประสงค์ 3850
North 3849
ือน 3849
แต้ 3849
แม่มด 3849
จันทร์@@ 3848
สุขา 3848
CN@@ 3846
WWE 3846
ประเทศพม่า 3846
ราชนาวี 3845
เม้าท์ 3845
Ra@@ 3844
งู@@ 3844
กรมศิลปากร 3843
ดอก@@ 3843
ปัส 3843
Cotton 3842
Tab 3842
กรีฑา 3841
๘@@ 3841
elle 3840
พันธสัญญา 3840
วงเวียน 3840
โปรเจกต์ 3840
ไม้@@ 3840
TP 3838
ج@@ 3838
ตกลงใจ 3837
094 3836
ไพโรจน์ 3836
Bit@@ 3835
cent@@ 3835
eva 3835
ชัง 3835
—@@ 3834
ฝาง 3833
พระประธาน 3833
พิ 3833
ลก 3833
อิก 3833
เพรา 3833
but 3832
tech 3832
ล้ำหน้า 3832
ใครต่อใคร 3832
ik 3831
พระศรี@@ 3831
149 3830
Snow 3830
ika 3830
ities 3830
ริกา 3830
บาด 3829
ผี@@ 3829
เกศ 3829
ANG@@ 3828
shop@@ 3828
ดาด 3828
147 3827
หุ่ง 3827
อาชญากร 3827
อเม@@ 3827
Wallet 3826
ector 3826
ย่อยสลาย 3826
รีน 3826
Photoshop 3825
สึกหรอ 3825
ียด 3825
แจ๊ส 3825
โครต 3825
Centre 3823
Performance 3823
Sy@@ 3823
จุดขาย 3823
ซุน 3823
ลบ@@ 3823
ธรรมาภิบาล 3822
สตร@@ 3819
HI@@ 3817
โจรกรรม 3817
แลบ 3816
Sar@@ 3815
ca@@ 3815
ฮุน 3815
เกียรติ@@ 3815
เมธี 3815
แอนติเจน 3815
Storage 3814
Get 3813
slot 3813
จังหวัดนครราชสีมา 3813
eter 3812
А@@ 3812
คอนโดมิเนีย 3812
ศูนย์วิจัย@@ 3811
สัจจะ 3811
ง้อ 3810
ซง 3809
เชียล 3809
ขับ@@ 3808
900@@ 3807
н 3807
Lock 3806
ade@@ 3806
คุกเข่า 3806
พล็อต 3806
เอเอฟ 3806
oz@@ 3805
ron@@ 3805
Blockchain 3804
ยม@@ 3804
แทค 3804
mark 3803
sl@@ 3802
มอเตอร์ไซด์ 3802
ฉะนี้ 3801
เทม 3801
Safety 3800
มาร์โก 3800
ยย 3800
วล 3800
สเปซ 3800
CRM 3799
Yu@@ 3798
คเตอร์ 3798
พรร@@ 3798
ยาก@@ 3798
๒๖ 3798
ดวง@@ 3797
ววว 3796
で@@ 3796
Hand 3795
ju@@ 3795
พระเถระ 3795
สิ่ง@@ 3795
โฮล 3795
pc 3794
2524 3793
eo 3793
ฆ 3793
ซานเดอร์ 3793
วิค 3793
เหต 3793
แนวร่วม 3793
แดน@@ 3792
2517 3790
Filter 3790
ards 3790
ดาร@@ 3790
har@@ 3789
OM@@ 3788
EF 3787
ละเอียดอ่อน 3787
chi@@ 3786
x2 3785
ออร่า 3785
LIN@@ 3784
ไอออน 3784
ス@@ 3784
ถนนพหลโยธิน 3783
หยา 3783
อาคม 3783
ถ่าง 3782
на 3781
ประเทศอิตาลี 3781
Queen 3780
VER@@ 3780
ธนาคารแห่งประเทศไทย 3780
สายไหม 3780
So 3779
year 3779
งัย 3779
ป็น 3779
กฤษ 3778
บ๊อบ 3777
พระบรมสารีริกธาตุ 3777
เริม 3777
นซ@@ 3776
พระคริสต์ 3776
หนักหนา 3776
เอริค 3776
Ang@@ 3775
inst@@ 3774
INE 3773
ผดุง 3773
Korea 3772
คร้า 3772
ez 3769
กรมหลวง@@ 3769
Sales 3768
Sand@@ 3768
นันทนาการ 3768
เกษตรศาสตร์ 3768
อนุโมทนา 3767
ATE 3766
2521 3765
hol@@ 3765
ห่า 3765
คริสตกาล 3764
Frame 3762
fac@@ 3762
と@@ 3762
วิภาวดี 3761
กระทบกระเทือน 3760
ถาว 3760
พรรคพวก 3760
มหึมา 3759
690 3758
สุญญากาศ 3758
้ำ 3758
หนองบัว 3757
bet 3756
คาร์ล 3755
พระบาทสมเด็จพระจอมเกล้าเจ้าอยู่หัว 3755
ด่างดำ 3754
ฟุตบอล@@ 3754
204 3753
mag@@ 3751
พระเพลิง 3751
ฤาษี 3751
ison 3750
อานนท์ 3749
con 3748
rol@@ 3748
บอนด์ 3748
Elena 3747
nit@@ 3747
zy 3747
об@@ 3747
เทียร์ 3747
พยัก 3746
สลิง 3746
คอสต้า 3745
สตร 3745
สตรีม 3745
สมรภูมิ 3745
คืบ 3744
ยศ@@ 3744
pres@@ 3743
คัท 3743
โซบะ 3743
๒๗ 3743
โป๊ะ 3742
Dream 3741
ราน 3741
If 3740
โควต้า 3740
เอ้าท์ 3739
Radio 3738
วิภา 3738
Kn@@ 3737
ea 3736
ไช 3736
สพป.@@ 3735
หรรษา 3734
ํ้า 3734
Paris 3733
ма@@ 3733
ขนมจีน 3733
ชมเชย 3733
พักผ่อนหย่อนใจ 3732
082 3730
don@@ 3730
een 3730
ดราก้อน 3730
1688 3729
Outlook 3729
เหว 3729
Base 3728
Serum 3728
มรณภาพ 3728
play@@ 3727
ผูกมัด 3727
2513 3726
Table 3726
คลี 3726
ทรวงอก 3726
ลาน@@ 3726
สำ 3726
เนีย@@ 3726
ันท์ 3725
ump@@ 3724
เสียดสี 3724
Fair 3723
กดทับ 3723
มุกดาหาร 3723
อกหัก 3723
ฟาโรห์ 3722
สาง 3722
coc@@ 3721
จริต 3721
มอนสเตอร์ 3721
ร่มเย็น 3721
สลับซับซ้อน 3721
เจ้าจง 3721
Exciter 3720
วัช@@ 3720
Tar@@ 3718
พลเอก@@ 3718
control 3717
ô@@ 3717
คลื่นไส้ 3717
ฉาว 3717
ซอร์ 3717
イ@@ 3717
香@@ 3717
ฟิค 3716
เหน 3716
จิตต์ 3715
บุ๋ม 3714
สาลี 3714
212 3713
PAR@@ 3713
ams 3713
ฑ 3713
ป็อป 3712
ไฟฟูจิ 3712
เซส 3711
Aut@@ 3710
ชันสูตร 3710
ประเทศอินโดนีเซีย 3710
super@@ 3709
กระ. 3708
เซรามิก 3707
FF@@ 3706
เชียงแสน 3705
Championship 3704
family 3704
กเกอร์ 3704
พอตเตอร์ 3703
สัจธรรม 3703
ฮอร์น 3702
แอนตี้ 3702
ทอย 3701
นร@@ 3701
กระด@@ 3700
จอมพล 3700
ฟฟี่ 3700
มัลติ 3700
ขอรับ 3699
GS@@ 3698
อุตส่าห์ 3698
เก็น 3698
ประเทศลาว 3697
Dar@@ 3696
Hello 3696
ยากเย็น 3696
วอลล์เปเปอร์ 3696
‍ 3696
Apr 3695
แมก@@ 3695
kar@@ 3694
Map 3693
UN 3693
ening 3693
ทัศนศึกษา 3693
124@@ 3692
แฮร์ 3692
เธฃ 3691
กปภ. 3689
► 3689
Virtual 3688
หมก 3688
ไศล 3688
วส์ 3687
แซก 3687
ซิตี 3686
HDD 3685
เจส 3684
142 3683
je@@ 3683
โมโน@@ 3683
01@@ 3682
กรุงโตเกียว 3682
ฆราวาส 3682
โธ@@ 3682
eller 3681
ios 3681
support 3681
ไนซ์ 3681
opp@@ 3680
ยูทู 3680
146 3679
CAR 3679
Top@@ 3679
microsoft 3678
คลี@@ 3678
ม็อบ 3678
bed 3676
หมัน 3676
อิล@@ 3676
098 3675
148 3674
Thammasat 3674
ปณิธาน 3673
สาขา@@ 3673
เดรีย 3673
ดาน 3672
อัคคีภัย 3672
Clip 3671
It@@ 3671
Plan 3671
นัล 3671
IV 3670
สเตย์ 3670
โรมา 3670
ข้าศึก 3669
ส่วนหน้า 3669
head 3668
จอห์นสัน 3668
ปรสิต@@ 3668
ปิโตรเลียม 3667
ภาพยนต์ 3667
Lip 3666
票@@ 3666
Get@@ 3665
lin 3665
ress 3665
ั้@@ 3665
เกรย์ 3665
โพย 3665
Do 3664
พระศพ 3664
€ 3664
illi@@ 3663
สมัครจี 3663
อารี 3663
าม@@ 3663
164 3662
งา@@ 3662
AO 3661
Area 3661
PU@@ 3661
เทิล 3661
เธก@@ 3661
พิซ 3660
วีระ@@ 3660
เสาว@@ 3660
ท้องเสีย 3659
้อม 3659
เครือ@@ 3658
ฟิลิป 3657
อุทยานแห่ง 3657
за@@ 3655
ชาเขียว 3655
เลี่ยม 3655
โกย 3655
Hot@@ 3654
Siam@@ 3653
cop@@ 3653
เสี่ยว 3653
cam@@ 3652
du 3652
ปฎิเสธ 3652
ดาร์บี้ 3651
แจ่มแจ้ง 3651
โม้ 3650
ศาสตร์@@ 3649
สัมพันธมิตร 3649
อีน 3649
ี้ย 3649
เกีย@@ 3649
Ass@@ 3648
ll 3648
คี่ 3648
ซี. 3648
ขุย 3647
คมชัด 3647
ซากิ 3647
นายบุญ@@ 3647
สมิธ 3647
เทศ@@ 3647
CG 3646
เยื้อง 3646
Hill 3645
XS 3645
city 3645
res 3645
с 3645
ผิด@@ 3645
Cy@@ 3644
ture 3644
จุ๊บ 3644
Mak@@ 3643
095 3642
ซอฟแวร์ 3642
ฮอร์@@ 3642
เสริ@@ 3642
Dan@@ 3641
Dou@@ 3641
hydro@@ 3641
จารุ@@ 3641
ร.ร. 3641
จ.สงขลา 3639
พลุ 3639
ฮิตเลอร์ 3639
แฮร์@@ 3639
Ear@@ 3638
Up@@ 3638
WR@@ 3638
มด@@ 3638
143 3637
55555 3637
จั่น 3637
ชั่น@@ 3637
ENT 3636
Multi@@ 3636
Cool 3635
บูร@@ 3635
ฟันธง 3635
ศาลา@@ 3635
สมัชชา 3635
wear 3634
Chiang 3633
Girls 3633
Son@@ 3633
ka@@ 3633
เธฒ 3633
Den@@ 3632
List 3632
รี่@@ 3632
บรรพชา 3631
Pacific 3630
วิลเลียม 3630
สตราจารย์ 3630
แอนิเมชั่น 3630
สะเดา 3629
Cro@@ 3628
หอคอย 3628
แอนดี้ 3628
prov@@ 3627
รักษา@@ 3627
เชค 3627
เยอร์ 3626
อินโดจีน 3625
Ju@@ 3624
mer@@ 3624
ปลิว 3624
โลม 3624
ทซ์ 3623
ปรินิพพาน 3623
ลูทูธ 3623
ิง@@ 3623
1984 3622
Now 3622
ud 3622
ชันษา 3622
ศัก 3622
ว้า 3621
 3620
ลามิเนต 3620
สันต์ 3620
ม้ง 3619
เจือปน 3619
9E 3618
ท๊อป 3616
เดิล 3616
ขาดหาย 3615
ชมรม@@ 3615
อรา@@ 3615
KM 3614
rip@@ 3613
ตรว 3613
ธรร@@ 3613
พิณ 3613
ไซร้ 3613
178 3612
Day@@ 3612
เย้ด 3612
long 3611
ق@@ 3611
ปาร์@@ 3610
ละเว้น 3610
เล่ย์ 3610
โลมา 3610
da@@ 3609
new@@ 3609
เบราเซอร์ 3609
iro 3608
เหาะ 3608
Stock 3607
สตาร์บัคส์ 3607
ทุนนิยม 3606
ริว 3606
แม่บท 3606
โสเภณี 3606
หน่วง 3605
เจ็บ@@ 3605
วิส@@ 3604
เบ่ง 3604
โณ 3604
dot 3603
1989 3602
Package 3602
Step 3602
มูล@@ 3602
วิริยะ 3602
ัล 3602
แตงโม 3602
HS 3601
ony 3600
กราฟฟิค 3600
๒๙ 3600
Japanese 3599
บอ 3599
ล่วงลับ 3599
169 3598
TN@@ 3598
ขวาน 3598
ยุน 3598
เม่น 3598
James 3597
mis@@ 3597
0902374654 3595
Hunter 3594
ทุรกันดาร 3593
AND@@ 3592
ภูฏาน 3592
แซน@@ 3592
х 3590
ฟิก 3590
が@@ 3590
big@@ 3589
place 3588
มพ์ 3588
หยัก 3588
HU@@ 3586
กาญจน@@ 3586
ฉก 3586
ทิน@@ 3586
ียร์@@ 3586
52@@ 3585
ข้าวสาร 3585
เณร 3585
Workshop 3584
ข้องใจ 3584
มห@@ 3584
dec@@ 3583
ลักซ์ 3583
ตั้น 3582
ไบร@@ 3582
Tools 3581
อปท. 3581
เปล่งปลั่ง 3581
สต๊อค 3578
เทียบเคียง 3578
พง@@ 3577
ั้ง 3577
WH@@ 3576
ตอล 3576
ปปี้ 3576
ลิตี้ 3576
Daily 3575
TOR 3575
ควา@@ 3575
ภูมิลำเนา 3575
เทีย 3575
162 3574
177 3574
UF@@ 3574
คอนโทรล 3574
ตอ@@ 3574
บีบี 3574
มาร์ท 3574
6100@@ 3573
Village 3573
ello 3572
มะละกอ 3572
LT@@ 3570
act 3569
ขจี 3569
เทนนิ่ง 3569
งเก@@ 3568
ยากไร้ 3568
206 3567
ตาร@@ 3567
สแควร์ 3566
เอ็กซ์@@ 3566
2475 3565
Force 3565
ลลา 3565
Cer@@ 3564
cream 3564
กระบือ 3564
ซุปเปอร์@@ 3564
420 3563
ภิกษุณี 3563
รัดกุม 3563
Moon 3562
work@@ 3561
จำนน 3561
ปั 3561
bas@@ 3560
องคมนตรี 3560
อินฟราเรด 3560
Blu 3559
าะ 3559
กิตติมศักดิ์ 3558
word 3557
AK 3556
Sunday 3556
แยกย้าย 3556
ไฉน 3556
ฟอรั่ม 3555
ว่องไว 3554
แคป@@ 3554
๒๕๕๖ 3554
Engineering 3553
Ta@@ 3553
Free@@ 3552
fol@@ 3552
อื@@ 3552
auto 3551
care 3551
ky@@ 3551
laz@@ 3551
pyrantel 3551
911 3550
stop 3550
ит@@ 3550
คาร่า 3550
ัต@@ 3550
่าม 3550
ทรั 3549
ฮาล์ฟ 3549
Editor 3548
Ins@@ 3548
เมิน 3548
เอสเต 3548
ได้ใจ 3548
MC@@ 3547
วาเลนไทน์ 3547
สถา@@ 3547
Malysheva 3546
ji@@ 3546
ฝนฟ้า 3546
แอบ@@ 3546
 3545
usb 3544
เค้น 3544
163 3543
น็อก 3543
jo 3542
ซั่ม 3542
โฆ 3542
176 3541
264 3541
Bridge 3541
block 3541
เยส 3540
log 3539
จังหวัดลำพูน 3539
พีวีซี 3539
อินซูลิน 3539
แจ็ค@@ 3539
ไปไหนมาไหน 3538
ไพ 3538
มิดชิด 3537
วโรกาส 3537
สลิป 3537
KE@@ 3536
twitter 3536
anth@@ 3535
nu@@ 3535
png 3534
ht 3533
men@@ 3533
พลัน 3533
โทมัส 3532
Oh 3531
ชนาธิ 3531
นิล@@ 3531
ฮะ@@ 3531
แง@@ 3531
】 3531
Inv@@ 3529
ล่ำ 3529
โดจิน 3529
คอสเพลย์ 3528
จ้องมอง 3528
พยัคฆ์ 3528
อุปนิสัย 3528
Kim 3527
ดึกดำบรรพ์ 3527
มหาสมุทรแปซิฟิก 3527
Hub 3526
oke 3526
พีพี 3525
เหน็บ 3525
Vermoxum 3524
copy 3524
จดจ่อ 3524
เส้นสาย 3524
FREE 3523
Rom@@ 3523
pen@@ 3523
ศุภาลัย 3523
340 3522
บราวน์ 3522
Leather 3519
Pa@@ 3519
Smartphone 3519
อึน 3519
แวะเวียน 3519
1080 3518
RC 3518
เสี 3518
ณฑ์ 3517
พล.อ. 3517
พินี 3516
หยาด 3516
Apartment 3515
Cross 3515
แฮะ 3514
งก์ 3513
บิว@@ 3513
ลาย@@ 3513
sion@@ 3511
”” 3511
Int@@ 3510
click 3510
gar@@ 3510
เมื 3509
เหล 3509
aa 3508
กระรอก 3508
กัง@@ 3508
ผูกขาด 3508
DD 3507
pa 3507
ดูกร 3507
สัมนา 3507
Ku@@ 3506
ประชาสังคม 3506
โชติ@@ 3506
Py@@ 3505
det@@ 3505
ides 3505
ทีโอที 3505
เหง้า 3505
โคลัมเบีย 3504
ตาม@@ 3503
ศิริราช 3503
พ.ต.ท. 3502
คุมขัง 3499
ประดุจ 3499
เย่ 3499
กะบะ 3498
อพาร์ท 3498
โอซิล 3497
เดซ 3496
ดีเอ 3495
สมโภช 3495
เร่งรีบ 3495
SR 3494
ยึดเกาะ 3494
Enterprise 3493
ดั้ง 3493
ฮาร์ 3493
เหี้ย 3493
TER@@ 3492
flu@@ 3492
ous@@ 3492
ยส์ 3492
เบิกบาน 3492
พระวจนะ 3491
ไทร์ 3491
ability 3489
add@@ 3489
ech@@ 3489
ติดสอย 3489
นายแพทย์@@ 3489
บุนนาค 3489
แอต@@ 3489
wal@@ 3488
ฃ@@ 3488
ตรรกะ 3488
บ์ 3488
เอที 3488
TON 3486
โอ๋ 3486
Novosibirsk 3485
สําคัญ 3485
เฉียด 3485
เอกซ์ 3485
62@@ 3484
โมะ 3484
aster 3483
NA 3482
ฟุต@@ 3482
open 3481
คคล 3481
จักษุ 3481
ียว 3481
ภาควิชา@@ 3480
เฮีย@@ 3480
ซีฟ 3479
เอ็ดเวิร์ด 3479
ข้าวสาลี 3478
พงศาวดาร 3478
พะ 3478
ละทิ้ง 3478
เงาะ 3478
dh@@ 3477
นิดหนึ่ง 3477
๒๕๕๕ 3477
ปรก 3476
Turbo 3475
ли@@ 3475
จะตาย 3475
จังหวัดตรัง 3475
นายน 3475
สำเภา 3475
หน่าย 3475
แห@@ 3475
lex 3474
จำปา 3474
สโบเบ็ต 3474
รีล 3473
เจลีก 3473
เชอรี่ 3473
ใหญ่@@ 3473
Open@@ 3472
กะปิ 3471
Ir@@ 3470
ทอล 3470
MG 3469
ole@@ 3469
ืน 3468
Protection 3467
ไคล 3467
Check 3466
ระนาด 3466
แช 3466
ก๊วย 3465
183 3464
ไชน่า 3464
ปภ. 3463
ปิติ 3463
หมกมุ่น 3463
เจสัน 3463
อิทธิ@@ 3462
เนี่ยน 3462
Xbox 3461
ญ์ 3461
ตำบลบาง@@ 3461
เสื่อมโทรม 3461
เคชั่น 3460
ไลค์ไลค์ 3460
ROM 3459
cher 3459
บะ@@ 3459
โอย 3459
Magazine 3458
hot 3458
ity@@ 3458
ฟิ 3458
ฮ็อต 3458
งค์@@ 3457
ย่างกุ้ง 3457
โขด 3456
shot 3455
ธาร@@ 3455
บาร์เรล 3455
ยด 3455
1920 3454
วิสามัญ 3454
EF@@ 3453
MU@@ 3453
ฏฐ@@ 3453
Quick 3451
นาก 3451
น้ำมูก 3451
พระราชดำรัส 3451
ลั 3451
อนุสัญญา 3451
tional 3450
ตอด 3450
่ย@@ 3450
aff@@ 3449
ones 3449
คลอรีน 3449
Luxury 3448
เดิน@@ 3448
Milk 3447
Tam@@ 3447
อุด@@ 3447
แม้น 3446
โปรย 3446
Lady 3445
most 3445
Whitening 3444
gps 3444
สตาร์@@ 3444
งิ้ว 3443
เดลี่ 3443
tags 3442
í 3442
ชีวะ 3442
วัดพระ@@ 3442
ull 3441
จังหวัดชัยภูมิ 3441
ฮานอย 3441
007 3440
179 3440
นารายณ์ 3440
ประธานาธิบดี@@ 3440
โมดูล 3440
790 3439
Library 3439
clu@@ 3439
Zh@@ 3437
sun@@ 3437
ซี่@@ 3437
ประเทศรัสเซีย 3437
ปัน@@ 3436
ino@@ 3435
ลูกศร 3435
แมค 3435
วิธ 3434
สุริย@@ 3434
Au@@ 3433
จุล 3433
เวนิส 3433
ook@@ 3432
Shop@@ 3431
・@@ 3431
Sav@@ 3430
สโม@@ 3430
SCG 3429
ape 3429
ل 3429
สตั๊ด 3429
สิ่งแวดล้อม 3429
Hong 3428
cc@@ 3428
กักเก็บ 3428
มาเลย์ 3428
ราชอิสริยาภรณ์ 3428
เซอ 3428
DR 3427
สุรศักดิ์ 3427
แพทย์@@ 3427
ครวญ 3426
May@@ 3425
สันติ@@ 3425
health 3424
พระธรรม@@ 3424
าะ@@ 3424
สัก@@ 3423
fuck 3422
เนียร์ 3422
ต่าย 3421
dtac 3420
map 3420
มารี@@ 3420
แอพพลิเคชัน 3419
ธนาคา 3418
ฟูก 3418
สังฆทาน 3418
235 3417
ญาไท 3417
นั่ม 3417
พระบรมราชโองการ 3417
พัช@@ 3417
Director 3416
rist@@ 3416
their 3416
เธ 3416
ช่าย 3416
เดินสาย 3416
MAT@@ 3415
River 3415
den@@ 3415
าบ 3415
กระทรวงแรงงาน 3414
Over 3413
י@@ 3413
ิร์@@ 3413
คร่ำ 3412
พระมเหสี 3412
อพาร์ทเมนท์ 3412
กรุ่น 3411
สตริง 3411
ERP 3410
ลัง@@ 3410
ร่ 3409
เคารพนับถือ 3409
แจม 3409
ลวด@@ 3408
TB 3407
สวัสดิภาพ 3407
เมา@@ 3407
เคี่ยว 3405
เลค 3405
ไจ@@ 3405
เนื้อคู่ 3404
่าง@@ 3403
ner@@ 3402
ole 3402
vers 3402
KS 3401
ทิฏฐิ 3401
Na@@ 3400
ศ.ดร.@@ 3400
ตะแคง 3399
ืด 3399
เดด 3399
เลติโก 3399
Stone 3398
П@@ 3398
ตตี้ 3398
สาก 3398
doc@@ 3397
เอเจน 3397
ฟาย 3396
Id@@ 3395
กล๊า 3395
ลูบไล้ 3395
แอปฯ 3395
เตร@@ 3394
เห็น@@ 3394
โภชนา 3393
canon 3392
make 3392
เสนา@@ 3392
091 3391
ขลุ่ย 3390
ยอง@@ 3390
รามาธิบดี 3390
เซียง 3390
ential 3389
ี่ย 3389
1950 3388
ตัวการ 3388
็ม 3388
Generation 3387
คาราวาน 3387
ห่าน 3387
แพด 3387
ฝา@@ 3386
สท@@ 3386
CAT 3385
ธรณีวิทยา 3385
รงค์ 3385
ICO 3384
hel@@ 3384
ชิมะ 3384
ฟาร์@@ 3384
วาร 3384
0000 3383
ภูธร 3383
GP 3382
ประณาม 3382
ART 3381
Rock@@ 3381
Theses 3381
category 3381
cl@@ 3379
พระราชกรณียกิจ 3379
หล่ม 3379
เคอร์ 3378
๊า@@ 3378
But@@ 3377
เหม็ด 3377
を@@ 3377
MT 3376
ราเมน 3376
ารา 3376
เจียน 3376
Customer 3375
SK 3375
rid@@ 3375
ครุ@@ 3375
ซาวน่า 3375
ผักกาด 3375
America 3374
God 3374
SF@@ 3374
กระจัง 3374
ทรีท 3374
เหน็ดเหนื่อย 3374
OL 3373
ดรา@@ 3373
ปฐมพยาบาล 3373
ารักษ์ 3373
399 3372
Boy 3372
Charge 3372
ho 3372
ชัยมงคล 3372
ตั้งมั่น 3372
โน้มน้าว 3372
Visa 3371
กระจาน 3371
ใบ@@ 3371
From 3370
IK@@ 3370
002 3369
Source 3369
ฟาร์ 3369
ขัดขืน 3368
เกรงกลัว 3368
เยี่ยมเยียน 3368
เลท 3368
ious 3367
181 3366
EB@@ 3365
กรุงมอสโก 3365
ร้อน@@ 3365
โอซาก้า 3365
Mega 3363
ลิช 3363
เก็นติ้ง 3363
แฟล@@ 3363
Way 3362
cm@@ 3362
ทิ่ม 3362
็ป 3362
เต้ย 3361
็ตต์ 3361
ทางหลวง 3360
นครบาล 3360
ปริ 3360
โอ้พระเจ้า 3360
189 3359
ili@@ 3359
ร่ำ 3359
ศิลปหัตถกรรม 3359
เนื้อตัว 3359
inal 3358
ปรารภ 3358
Chang 3357
OEM 3357
กะหล่ำ 3357
ดั้ม 3357
ิก 3357
เจ. 3357
้บ 3357
BY 3356
Mic@@ 3356
กองทุน@@ 3356
ิ่ม 3356
แจ้ 3356
LTE 3355
วิกา 3355
เท็กซัส 3355
ไม่ถึง 3355
188 3354
IR 3354
esis 3354
เพื่อ@@ 3354
ank 3353
dy@@ 3353
โคว@@ 3353
★★★★★ 3353
1600 3352
ered 3352
orn@@ 3352
ครัน 3352
สมณ@@ 3352
GDP 3351
Outdoor 3351
THB 3351
hor@@ 3351
กรรไกร 3351
จิรา 3350
ซาร่า 3349
ห่อหุ้ม 3349
disgidroticheskaya 3348
emo@@ 3348
lay 3348
096 3347
9000 3347
สมั@@ 3347
173 3346
หนุ่ย 3346
สธ. 3345
แกล 3345
Block 3344
asa 3344
ข่ม 3343
จันทรา 3343
มหายาน 3343
เช่าซื้อ 3343
เฟรนช์ 3343
แม่แบบ 3343
Clear 3342
อิบราฮิโม 3342
Trading 3341
เจี้ยน 3341
school 3340
หลั่งไหล 3339
ออกไซด์ 3339
เฉา 3339
Concept 3338
Direct 3338
Tim@@ 3338
จุด@@ 3338
ตรงใจ 3338
MINI 3337
pal@@ 3337
รี่ส์ 3337
SUV 3336
ตำบลบ้าน@@ 3336
สมุย 3336
คอยล์ 3335
มหาชัย 3335
มาเก๊า 3335
ไบรท์ 3333
พาสปอร์ต 3332
เอม@@ 3332
Gear 3331
Stre@@ 3331
ู่@@ 3331
py@@ 3330
ระบ@@ 3330
208 3329
Gam@@ 3329
و 3329
ซ่อนเร้น 3329
Fo@@ 3328
yu 3328
บอง 3328
สุขสวัสดิ์ 3328
อโร@@ 3328
าาา 3328
Grey 3327
inger 3327
ดด@@ 3327
ประสม 3327
ปั๊บ 3327
ยืนหยัด 3327
หนักใจ 3327
6000 3326
Clo@@ 3326
Condominium 3326
งะ 3326
พร้อมเพรียง 3326
วิจารณญาณ 3326
นัยน์ตา 3325
เทียว 3325
OM 3324
Old 3324
social 3324
ไฮไลต์ 3323
ren@@ 3322
ศัก@@ 3322
อค 3322
ไนน์ 3322
Fit 3321
เหย@@ 3321
ชัค 3320
พลัง@@ 3320
sit 3319
zen 3319
ซุปตาร์ 3319
แมกซ์ 3319
ลอป 3318
อู้ 3317
่าว 3317
MD 3316
address 3316
ทาบทาม 3316
ภูมิต้านทาน 3316
✅ 3316
loc@@ 3315
osh@@ 3315
ระเบียบเรียบร้อย 3315
ื่ 3315
187 3314
brand 3314
Experience 3313
True@@ 3312
ชาติไทย 3312
ไวโอลิน 3312
halyus 3311
เบบี้ 3311
จักรี 3310
ซาร@@ 3310
วอร์ม 3310
FA 3308
ANA 3307
ments 3307
เครื่อง@@ 3307
หน่า 3306
เหลือ@@ 3306
198 3305
เฮฮา 3305
แร้ 3305
ขัย 3304
ธีรศิลป์ 3304
088 3303
Age 3303
Leg@@ 3303
ni 3303
ลุล่วง 3303
เอกมัย 3303
๋อ 3303
att 3302
กรมป่าไม้ 3302
สุกี้ 3302
อ่อนหวาน 3301
Piece 3300
uf@@ 3300
other 3299
ency 3298
ان@@ 3298
ตซ์ 3298
บ๊@@ 3298
Driver 3297
bel@@ 3297
ฟอสฟอรัส 3297
che 3296
มัธ 3296
พระบรมราช@@ 3295
เด็กหญิง@@ 3295
รัด@@ 3294
วิมาน 3294
speed 3293
นายสุรชัย 3293
F1 3292
software 3292
วัดหนอง@@ 3292
เสรี@@ 3292
Suite 3291
พินัยกรรม 3291
แล็บ 3291
182 3290
Disney 3290
ชอง 3290
ฮง 3290
แข็ง@@ 3290
ปรือ 3289
พระเจ้าบรมวงศ์เธอ 3289
สมิ@@ 3289
แพ็ค@@ 3289
rop@@ 3288
สดับ 3288
อรั@@ 3288
Mah@@ 3287
Messenger 3287
ซอฟ 3287
ธัม@@ 3287
บำรุง@@ 3287
เจา 3287
ith 3286
มัลติมีเดีย 3286
แปร@@ 3286
แวมไพร์ 3286
One@@ 3285
เนท 3285
Trip 3284
ers@@ 3284
ฉ้อโกง 3284
นาม@@ 3284
ฮัลโหล 3284
แมนชั่น 3284
ยญ 3283
เจอะ 3283
โน้ตบุ๊ก 3283
คอมเพล็กซ์ 3282
ดดด 3282
ฮือ 3282
โฮส 3282
Supply 3281
Human 3280
เชื้อโรค 3280
ช็อคโก 3279
ซาง 3279
ดังกล่าว 3279
BI@@ 3278
เกย 3278
Dell 3277
เทร 3277
แรงม้า 3277
ッ@@ 3277
กุย 3276
นักบุญ@@ 3276
0px 3275
สปอนเซอร์ 3275
อิจิ 3275
เรือใบสี 3275
Kon@@ 3274
ที่่ 3274
ปเปอร์ 3274
ั่น 3274
เธด 3273
ไนจีเรีย 3273
กาหนด 3272
มอล 3272
Login 3271
до@@ 3271
โอ้ว 3271
ขั@@ 3270
ยูนิฟอร์ม 3270
Psoriasis 3268
Stainless 3268
Tok@@ 3268
ซาย 3268
เขม@@ 3268
วัดระฆัง 3267
bit@@ 3266
อุปโภค 3266
wr@@ 3265
ปฎิ@@ 3265
อธิปไตย 3265
IDE 3264
ขรุขระ 3264
2514 3263
berg 3263
ving 3263
ดอ 3263
พระบาทสมเด็จพระมงกุฎเกล้าเจ้าอยู่หัว 3263
เห่า 3263
๘๐ 3263
Mouse 3262
กรุงศรี 3262
ตะปู 3262
who 3261
ศักดิ์@@ 3261
PT 3260
р 3260
ตำรวจ@@ 3260
ติวานนท์ 3260
เฟร์ 3260
ฟส์ 3259
ไฟต์ 3259
370 3257
pur@@ 3257
มว@@ 3257
ศาสนสถาน 3257
ซึมเศร้า 3256
พลเอก 3256
หยิ่ง 3256
SY@@ 3255
WIN@@ 3255
tain 3255
กูเกิ้ล 3255
ทิส 3255
โมก 3255
CL 3254
Shock 3254
ress@@ 3254
zone 3254
มหาดไทย 3254
แพ็ก 3254
hum@@ 3253
ยยยย 3252
โอม 3252
ไต้ฝุ่น 3252
non 3251
خ@@ 3250
อาบัติ 3250
เพย์ 3250
な@@ 3250
jav@@ 3249
ผอง 3249
ารัตน์ 3249
เสนาะ 3249
แครอท 3249
หวา 3248
ชิคาโก 3247
็อต 3246
ust 3245
ริซิโอ 3245
DL@@ 3244
Vision 3243
155@@ 3242
แบนเนอร์ 3242
Nintendo 3241
เก๋ไก๋ 3241
Ren@@ 3240
จอก 3240
ชอบ@@ 3240
สะพัด 3240
เสม็ด 3240
็อต@@ 3240
้ำ@@ 3240
174 3239
yer 3239
ลม@@ 3239
Cell 3238
check 3238
movie 3238
В@@ 3238
ซาวด์ 3238
ไฟร์ 3238
เจียม 3234
back@@ 3233
ยุทธ์ 3232
โทรหา 3232
coin 3231
ح@@ 3231
สแกนเนอร์ 3231
B7 3230
zu 3230
ฝิ่น 3230
หง 3229
เม็กซิกัน 3229
EU 3228
sen@@ 3228
อลัน 3228
184 3227
2511 3227
Bul@@ 3227
Can 3227
row@@ 3227
Address 3226
pcs 3226
าใจ 3226
MI 3225
ขจร 3225
ชาร์ลี 3225
ญาณ@@ 3225
เอียน 3225
January 3224
ML 3224
Pen 3224
samsung 3224
tom@@ 3224
ปลั่ง 3224
ern 3223
เจียง@@ 3223
เอกภาพ 3223
IOS 3222
ดาย 3222
ถึง@@ 3222
เว็บหวย 3222
Lite 3221
Robot 3221
°C 3221
กิล@@ 3221
หีเนียน 3221
อันเดอร์ 3221
fu@@ 3220
jobbkk 3220
เปาโล 3220
Lim@@ 3219
Please 3219
ination 3219
ont 3219
Max@@ 3218
Pres@@ 3218
ปาน@@ 3218
สโล 3218
David 3217
information 3217
lam@@ 3217
ชนก 3217
ประสง 3217
อังเดร 3217
โบ้ 3217
Gluta 3216
ISUZU 3216
ท่องเที่ยวแห่งประเทศไทย 3216
จอมเทียน 3215
สลิด 3215
月 3215
167 3214
AGE 3214
พระราชบิดา 3214
เว็ปไซต์ 3214
HA 3213
หมาย@@ 3213
ock@@ 3212
ц@@ 3212
กษณะ 3212
จด@@ 3212
ถดถอย 3212
มิ้น 3212
อิ่ม@@ 3212
คัล@@ 3211
・ 3211
ania 3210
ถอดถอน 3210
ล้ 3210
Dynamic 3209
ble@@ 3209
วิต 3209
อ้อนวอน 3209
Our 3208
made 3208
สิกขา 3208
は@@ 3208
Under@@ 3207
add 3207
pos@@ 3207
sil@@ 3207
Mountain 3206
เบ็น 3206
105@@ 3205
used 3205
ตะกร้อ 3205
ออทิสติก 3204
เกมเมอร์ 3204
2512 3203
Lab@@ 3203
Text 3203
จับผิด 3203
โซลูชัน 3203
พระวิญญาณ 3202
แปลกปลอม 3202
ays 3201
value 3201
เฮ้อ 3200
Plaza 3199
Browser 3198
มิจฉาชีพ 3198
เมดิเตอร์เรเนียน 3198
atch 3197
du@@ 3197
oy 3197
Farm 3196
หาน 3196
ู้@@ 3196
็อป 3196
mode 3195
music 3195
ux 3195
เดียร์ 3195
ec 3194
under@@ 3194
อริย@@ 3193
เนอ 3193
ла@@ 3191
คีบ 3191
บ้านนา 3191
เบอรี่ 3191
Automatic 3190
Lab 3190
เจิม 3190
เสนาบดี 3190
Future 3189
ห้อยตาม 3189
เพิ@@ 3189
การัน 3188
บรรดาศักดิ์ 3188
3d 3187
Chevrolet 3187
Michael 3187
ทรวง 3187
Ru@@ 3186
ле@@ 3186
สปิน 3186
Save 3185
นางพญา 3185
ระนาบ 3185
ื่อน 3185
กต์ 3184
จังหวัดยะลา 3184
อินเทรนด์ 3184
เครื่องไม้เครื่องมือ 3184
ring 3183
ล่วงเลย 3183
VA 3182
Walk 3182
fa 3182
รับปาก 3182
แกน@@ 3182
HY@@ 3181
dig@@ 3181
teen 3181
กฤ@@ 3181
ดิล 3181
อาร์เจนไตน์ 3180
700@@ 3179
LPG 3179
spec@@ 3179
Boo@@ 3178
เทล@@ 3178
ทูน่า 3177
มาเรีย 3177
รอส 3177
207 3176
Wor@@ 3176
etr@@ 3176
not@@ 3176
self 3176
กาส 3176
นิก@@ 3176
โอบามา 3176
Cos@@ 3175
EG@@ 3174
buy 3174
จังหวัดสุโขทัย 3174
บีม 3174
ริยะ 3174
เธช@@ 3174
แพล@@ 3174
๐๙ 3174
да@@ 3173
กฤต 3173
คอมเมนต์ 3173
บราซิ 3173
รั่ม 3173
วิศวก 3173
สี. 3173
Four 3172
SCB 3172
ดุม 3172
อรี@@ 3172
ียม 3171
เซฟตี้ 3171
แร้ง 3171
ขุนเทียน 3170
จังหวัดบุรีรัมย์ 3170
้อง@@ 3170
ati 3169
โรแบร์ 3169
（@@ 3169
Deep 3168
Tree 3167
คาดคะเน 3167
ถนนสุขุมวิท 3167
ปอร์ 3167
med@@ 3166
ดอล@@ 3166
แพน@@ 3166
ฐา 3165
๔๐ 3165
ル@@ 3165
193 3164
aker 3164
หมา@@ 3164
เพล็กซ์ 3164
กนก 3163
ส้อม 3163
........ 3162
ไซบีเรีย 3162
Virus 3161
กรมท่า 3161
ตวน 3161
พังทลาย 3161
ลดา 3161
หม่อม@@ 3161
แน่วแน่ 3161
Kit@@ 3160
cat@@ 3160
ทริ 3160
ปฏิสนธิ 3160
Phuket 3159
travel 3159
วิชญ์ 3159
ส่วน@@ 3159
ุก 3159
เอ็@@ 3159
โอวาท 3159
Site 3158
หนุมาน 3158
เคท 3158
DU@@ 3157
Ul@@ 3157
ฉัตรชัย 3157
ชัว 3157
เบี่ยง 3157
Portable 3156
cha 3156
อัตตา 3156
ali@@ 3155
ו@@ 3155
Full@@ 3154
Tool 3154
MV@@ 3153
Men@@ 3153
ชาตินิยม 3153
ตรวจตรา 3153
ริยา@@ 3153
เส้า 3153
ภ.@@ 3152
ลินิน 3152
VGA 3151
beauty 3151
ฟเฟ@@ 3151
วาล์ 3151
ใหญ่หลวง 3151
5s 3150
Buffet 3149
ดาวเรือง 3149
ดิว 3149
สกสค. 3149
เจ้าฟ้า 3149
О@@ 3148
ไชยา 3148
Mid@@ 3147
Monster 3147
อารีย์ 3147
เวชชาชีวะ 3147
blue 3146
ชีพจร 3146
ฝี@@ 3146
วีระ 3146
แล้ว@@ 3146
โอบล้อม 3145
Cash 3143
ติดอันดับ 3143
เชอร์รี่ 3143
ree 3142
LC 3141
Nik@@ 3141
Bad 3140
Eco 3140
Nexus 3140
ถนนเพชรเกษม 3140
ประโยชน 3140
Singapore 3139
anch@@ 3139
ก่อเกิด 3139
อำเภอบาง@@ 3139
ет@@ 3138
บวร@@ 3138
เร่าร้อน 3138
lev@@ 3137
ь 3137
วิทยาคม 3137
อำพราง 3137
เซย์ 3137
load 3136
Tea 3135
เจ๊ง 3135
ading 3134
บาน@@ 3134
ร่น 3134
อเรีย 3134
213 3133
Ocean 3133
dem@@ 3133
๊ว 3133
Basic 3132
February 3132
nie 3132
ปทุม@@ 3131
วิมล 3130
ric@@ 3129
ปอร์ต 3129
แผน@@ 3129
ลอม 3128
หมิ่น 3128
กอก 3127
‬ 3127
oe 3126
พิช@@ 3126
VCD 3125
apple 3124
ชิงช้า 3124
รังแค 3124
amine 3123
cel@@ 3123
cy@@ 3123
ซิลิ@@ 3123
แม่ชี 3123
Porsche 3122
สัญญาน 3122
uri 3121
มิสเตอร์ 3121
เก็บ@@ 3120
่วน 3120
ก.ล.ต. 3119
Tasang 3118
vers@@ 3118
พุฒ 3118
เนาะ 3118
สแปนิช 3117
Communication 3116
Wil@@ 3116
date 3116
ก๊วน 3116
อร่า 3116
ขาด@@ 3115
พระนิพพาน 3115
MO 3114
UL 3114
จอร์ 3114
พี. 3114
ref@@ 3113
จังหวัดสุราษฎร์ธานี 3113
ชอว์ 3113
โธ 3113
ท่าอากาศยานสุวรรณภูมิ 3112
พนัก 3112
Yellow 3111
กระทรวงพลังงาน 3111
Han@@ 3110
TY 3110
nh@@ 3110
ซอส@@ 3110
เคลิ้ม 3110
เอ็ด@@ 3110
4GB 3109
เนือง 3109
็ท@@ 3109
275 3108
กระดิ่ง 3107
HI 3106
โอร@@ 3106
don 3105
ขอน 3105
ชีล 3105
สตั@@ 3105
สสาร 3104
360@@ 3103
520 3103
COR@@ 3103
Football 3103
กรุงรัตนโกสินทร์ 3103
จลาจล 3103
โฮจิมินห์ 3103
สิก 3102
ฮวน 3102
เดฟ 3102
เพลีย 3102
รูนี่ย์ 3101
ลังกา 3101
Asus 3100
emp@@ 3100
ไอติม 3100
ทนา 3099
วูบ 3099
สเกิร์ต 3099
IO@@ 3098
oda 3098
ชั่วช้า 3098
คุ้ม@@ 3097
ดรา 3097
โรเลต 3097
Aqu@@ 3096
Nature 3096
max@@ 3096
ume 3096
ชิ้น@@ 3096
ไอโอ@@ 3096
Sab@@ 3095
ius 3095
ord@@ 3095
ram 3095
นุ่งห่ม 3095
แบต@@ 3095
มิลลิลิตร 3094
Jack 3093
Tal@@ 3093
ซัง@@ 3092
og 3091
สนุกสนา 3091
สุนทรภู่ 3091
Products 3090
го@@ 3090
นอ@@ 3090
สาธารณรัฐประชาชน 3090
IX 3089
Sou@@ 3089
come 3089
สุนทรพจน์ 3089
Paul 3088
oper@@ 3087
โฮล@@ 3087
แอก 3086
Electronic 3085
คูน 3085
ญวน 3085
พุทธมณฑล 3085
่าย@@ 3085
197 3084
Sweet 3084
พิสดาร 3084
อินโด 3084
เทีย@@ 3084
พระสูตร 3083
DSLR 3082
FOR 3082
Hyper@@ 3082
ปลีกย่อย 3082
วิคเตอร์ 3082
สเก็ต 3082
December 3081
Exclusive 3081
eling 3081
omy 3081
Language 3080
POP 3080
Pic@@ 3080
Views 3080
story 3080
ยุ่งเหยิง 3080
เมต 3080
Bus 3079
Journal 3079
Sex 3079
วัฏจักร 3079
อิส 3079
Nav@@ 3078
ดยุก 3078
หลิง 3078
แม่สอด 3078
301 3077
Dog 3077
โนะ@@ 3077
Date 3076
Ze@@ 3076
face 3076
บว@@ 3076
โปรเน็ต 3076
๊ย 3076
Imp@@ 3075
Tab@@ 3075
ารั@@ 3075
แลต 3075
Jewelry 3074
XX@@ 3074
ulation 3074
วน์ 3074
โครง@@ 3074
Pocket 3073
part@@ 3073
ทะเยอทะยาน 3073
ล้อเล่น 3073
สโนว์ 3073
อายัด 3073
After 3072
ру@@ 3072
ปะทุ 3072
เซาท์@@ 3072
แอนนา 3072
Credit 3071
ฮอ 3071
้าว 3071
ota 3070
ปรากฎการณ์ 3070
พรีเซ็นเตอร์ 3070
เปิด@@ 3070
Varus 3069
phot@@ 3069
°@@ 3069
อดี้ 3069
เปรียญ 3069
business 3068
พย 3068
สมาคมกีฬาฟุตบอลแห่งประเทศไทย 3068
vit@@ 3067
ห้ามปราม 3067
แม่น@@ 3067
โพร 3067
ARA 3066
SUPER 3066
คดี@@ 3066
sions 3065
ข้าวของเครื่องใช้ 3065
249 3064
กิติ@@ 3064
บาล@@ 3064
น้อยนิด 3063
จอร์เจีย 3062
พุท 3062
10000 3060
1986 3060
สัด 3060
แซบ 3060
Ka@@ 3059
ศักย 3059
ไอจี 3059
เภสัชศาสตร์ 3058
Adventure 3057
เรขาคณิต 3057
LD 3056
ฟั@@ 3056
สเก@@ 3056
โต้เถียง 3056
Building 3055
Iron 3055
ที่อยู่อาศัย 3055
สำนักพิมพ์@@ 3055
เทศบาลนคร@@ 3054
เมย 3054
GPU 3053
tak@@ 3053
อาชีวะ 3053
อุตุ 3053
แสน@@ 3053
126@@ 3052
pu@@ 3052
ดีเลิศ 3052
ท้องตลา 3052
โจโฉ 3052
ง่ 3051
มาก@@ 3051
รวง 3051
ฮิโร@@ 3051
Az@@ 3050
ซีพี 3050
หม่ำ 3050
•@@ 3050
WIFI 3049
which 3049
คณ@@ 3049
ร่วน 3049
ลัย@@ 3049
อาละวาด 3049
ไมเกรน 3049
Fu@@ 3048
KB 3048
ฟิช 3048
what 3047
จยย. 3047
ะห์ 3047
ื่น 3047
แอฟริกัน 3047
1A 3046
นตรา 3046
สินบน 3046
ห้ 3046
Mus@@ 3045
เด้อ 3045
เบตง 3045
ยูทูป 3044
เธง 3044
Brother 3043
Short 3043
Goo@@ 3042
จังหวัดนครพนม 3042
พอร์@@ 3042
เริ่ด 3042
CK 3041
Zoom 3041
ise@@ 3041
pt@@ 3041
road 3041
ต.บาง@@ 3041
สัญ@@ 3041
เนา 3041
รายละ 3040
ฮ็อท 3040
สุริ@@ 3039
อล์@@ 3039
อูเบอร์ 3039
ะฮ์ 3039
้าว@@ 3039
HDR 3038
Number 3038
very 3038
ศร@@ 3038
อ๊@@ 3037
Bri@@ 3036
Fiber 3036
ort 3036
นาร@@ 3036
Matte 3035
pra@@ 3035
ซัล 3035
ลิม 3035
） 3035
Pixel 3034
สปีชีส์ 3033
ION 3032
achi 3032
nar@@ 3032
pop 3032
คริป 3032
ดีไซเนอร์ 3032
พาน@@ 3032
แลเห็น 3032
BT@@ 3031
Remote 3031
adidas 3031
พระราชินี 3031
Det@@ 3030
wikipedia 3030
mm@@ 3029
กเตอร์ 3029
223 3028
Accessories 3028
บรรณารักษ์ 3028
ศาสตราจารย์@@ 3028
เลียง 3028
ฮับ 3027
ียะ 3027
จังหวัดกระบี่ 3026
บูด 3026
TOEIC 3025
ฆ้อง 3025
สเกล 3025
232 3024
King@@ 3024
ging 3024
need 3024
สูญญากาศ 3024
โมโตะ 3024
times 3023
บริกร 3023
ินทร์ 3023
Monitor 3022
dium 3022
วิทยาศาสตร์@@ 3021
ัด@@ 3021
Р@@ 3020
วัดศรี@@ 3020
อนด์ 3020
เที่ยงตรง 3020
เหนื่อยล้า 3020
211 3019
Mir@@ 3019
Od@@ 3019
ปริญญาบัตร 3019
ศาจ 3019
สวนสัตว์ 3019
๊บ@@ 3019
Camp 3017
Fitness 3017
Motion 3017
มัวร์ 3017
ริล 3017
อูฐ 3017
ีย์@@ 3017
เมกเกอร์ 3017
Small 3016
photo 3016
ชาง 3016
โวยวาย 3016
gro@@ 3015
ดีดี 3015
พล.ต.ท.@@ 3015
เทศบาลตำบล@@ 3015
Mur@@ 3014
ily 3014
ying 3014
ดาวโหลด 3014
กรุงไทย 3013
นักเลง 3013
พ.ต.ท.ทักษิณ 3013
ศึกษาศาสตร์ 3013
อูฟา 3012
เกสต์ 3012
เฟิร์ต 3012
เรี่ยวแรง 3012
แทร็ฟฟอร์ 3011
คั่ง 3010
น่อล 3010
โป๊ก 3010
ト@@ 3010
Connect 3009
Unit 3009
คลอไรด์ 3009
ปอ@@ 3008
เมทริกซ์ 3008
Fal@@ 3007
Mit@@ 3007
อ๋อง 3007
Alpha 3006
VE 3006
gold 3006
นิดา 3006
หญ้า@@ 3006
ึง@@ 3006
กุง 3005
เต็ด 3004
๋ว 3004
mel@@ 3003
ุน 3003
Chinese 3002
ark 3002
eline 3002
touch 3002
ú@@ 3002
บางแสน 3002
ปั่นป่วน 3002
เชียน 3002
ites 3001
พิบ 3001
TT@@ 3000
Var@@ 3000
ดาต้า 3000
องครักษ์ 3000
GE@@ 2999
Student 2999
ปราโมทย์ 2999
ร่มเงา 2999
สถ@@ 2999
จังหวัดชุมพร 2998
วินทร์ 2998
เกรซ 2998
๒๓@@ 2998
Fuji 2997
สมณศักดิ์ 2997
เล้า 2997
209 2996
ener@@ 2996
lit@@ 2996
people 2996
พีค 2996
อัง 2996
เอิ@@ 2996
Webboard 2995
lim@@ 2995
พราว 2995
อนิเมชั่น 2995
กระทัดรัด 2994
ทอม@@ 2994
เมรุ 2994
Change 2993
ก์@@ 2992
จ.ลำปาง 2992
Animation 2991
ชาญฉลาด 2991
บรรทัดฐาน 2991
ปราง 2991
าร 2991
คีม 2990
เจีย@@ 2990
โอ้ย 2990
090 2989
EE@@ 2989
Squ@@ 2989
112@@ 2988
POR@@ 2988
อำมาตย์ 2988
Rol@@ 2987
login 2987
แหล@@ 2987
Let 2986
stock 2986
งอกงาม 2986
ท่าอากาศยาน 2986
น้อย@@ 2986
ฟูจิ 2986
เบิร์ต 2986
Golf 2985
มนัส 2985
มินสก์ 2985
ลาสเวกัส 2985
ได้เสีย 2985
2503 2984
Hardware 2984
Nano 2984
ลิบ 2984
เอเชียแปซิฟิก 2984
dro@@ 2983
ทัณฑ์ 2983
เพ็ง 2983
ris 2982
กล่าวอ้าง 2982
มุน 2982
ADIDAS 2981
tracking 2981
ฉัตร@@ 2981
มอยส์ 2981
อิชิ@@ 2981
194 2980
RO 2980
กัญญา 2980
พุทธเจ้า 2980
๕๐๐ 2980
Report 2979
sia 2979
สนามบินสุวรรณภูมิ 2979
เคส@@ 2979
แอง 2979
พระตำหนัก 2978
OD@@ 2977
down@@ 2977
мо@@ 2977
กะหรี่ 2977
ลูก้า 2977
elling 2976
ลิฟ 2976
Fol@@ 2975
บุฟเฟต์ 2975
Rh@@ 2974
ล่าร์ 2974
วัดพระธรรมกาย 2974
องค 2974
กาญจนา 2973
ชุมพล 2973
เจือ 2973
Est@@ 2972
Head@@ 2972
img 2972
menu 2972
บาสเกต 2972
๊อ 2971
vision 2970
ฟเวอร์ 2970
รกรุง 2970
ลี่ย์ 2970
ูป@@ 2970
โพสท์ 2970
Merc@@ 2969
บรูไน 2969
หม่อน 2969
ไฮโดร@@ 2969
Ep@@ 2968
จวบจน 2968
ond 2967
ผ้า@@ 2967
สีมา 2967
Fantasy 2966
про@@ 2966
ทวีต 2966
พีร@@ 2966
ลับ@@ 2966
อินดัส 2966
合@@ 2966
Log@@ 2965
Mark@@ 2965
oz 2965
มาสก์ 2965
สรรพสามิต 2965
สังคมสงเคราะห์ 2965
ออมสิน 2965
พอร์ท 2964
‪ 2964
Liquid 2963
ipad 2963
สถานีโทรทัศน์ 2963
2499 2962
ader 2962
นัง@@ 2962
เดชา 2962
Surface 2961
กระบ@@ 2961
Five 2960
base 2960
DJ 2959
aur@@ 2959
มัก@@ 2959
Kitty 2958
ก่อ@@ 2957
อนาจาร 2957
อาร์สยา 2957
อูย 2957
1972 2956
การ์เด้น 2956
คลอ@@ 2956
บอท 2956
ยุว@@ 2956
Healthy 2955
WA 2955
บดบัง 2955
แก๊งค์ 2955
กลั่นกรอง 2954
พระเทพ@@ 2954
ยัง@@ 2954
234 2953
project 2953
นางสุ@@ 2953
นายประ@@ 2953
ฟัด 2953
อู่@@ 2953
Wave 2952
etc 2952
ๆ@@ 2952
๓๑ 2952
Pattaya 2951
ฉันท์ 2951
CI 2950
สนามหลวง 2950
เมต@@ 2950
เเรง 2950
❤️ 2950
Dor@@ 2948
บุช 2948
ออฟชั่น 2948
โพลี@@ 2947
And@@ 2946
กันต์ 2946
จิเนีย 2946
สุดขีด 2946
Days 2945
dom 2945
กกี้ 2945
สยามพาราก 2945
เมนู@@ 2945
they 2944
Ф@@ 2943
ขากรรไกร 2943
เภสัช 2943
ธนาคารออมสิน 2942
หน่ะ 2942
links 2941
ถูก@@ 2941
1987 2940
2505 2940
ela 2940
ดีต 2940
สัตว@@ 2940
คายัค 2939
บรม 2939
มือปืน 2939
ไคล@@ 2938
410 2937
กรีน@@ 2937
บัลแกเรีย 2937
เเม่ 2937
ood 2936
ria 2936
คอร์รัปชั่น 2936
ทธิ@@ 2936
ลิลลี่ 2936
สถาปัตย์ 2936
สามาร 2936
Study 2935
เวสต์@@ 2935
Graphic 2934
MOU 2934
กระไร 2934
ไรเดอร์ 2934
ดับเบิล 2933
พาส 2933
038 2932
Front 2932
aga 2932
y” 2932
จังหวัดพังงา 2932
เซรามิค 2932
ใคร่ครวญ 2932
ควา 2931
๒๕๕๔ 2931
Acid 2930
ชาร์ล 2930
พระศาสนา 2930
ฮอย 2930
ียร์ 2930
sy@@ 2929
สี่@@ 2929
Description 2928
ave 2928
cumshot 2928
ix@@ 2928
มทร. 2928
๐@@ 2928
Song 2927
zo 2927
จิ๊ก 2927
ติค 2927
นายอภิสิทธิ์ 2927
ลว 2927
เชียงดาว 2927
โปรไฟล์ 2927
Dig@@ 2926
กิง 2926
เอเอฟซี 2926
้าน@@ 2926
Theme 2925
ฝาด 2925
เช้าตรู่ 2925
TION 2924
ฉบัง 2924
Master@@ 2923
ви@@ 2923
กอร์@@ 2923
640 2922
Omsk 2922
คุณสุ@@ 2922
แกรมมี่ 2922
Cab@@ 2921
บิก 2921
อาซา@@ 2921
Meg@@ 2920
remix 2920
ตึ@@ 2920
ฟริ@@ 2920
Course 2919
sul@@ 2919
ฆา 2919
ถั่ว@@ 2919
บรรณ 2919
Land@@ 2918
บ่มเพาะ 2918
ออกงาน 2918
แฟร@@ 2918
5G 2917
Extra 2917
Self 2917
246 2916
Detox 2916
position 2916
view@@ 2916
นิจ 2916
ป้องกันและ 2916
สุดโต่ง 2916
โป็ 2916
align 2915
park 2915
ลัน@@ 2915
ลุ่มน้ำ 2915
สยบ 2915
Pra@@ 2914
nbsp 2914
คาล 2914
ราฟ 2914
เร้น 2914
แตกร้าว 2914
ไจ 2914
คอมเมิร์ซ 2913
ติส 2913
ทารุณ 2912
ประแจ 2912
ริย@@ 2912
อัลไซเมอร์ 2912
เสื่อมเสีย 2912
323 2911
โอ๊ค 2911
tif@@ 2910
ท่ 2910
ฬ 2910
JAPAN 2909
share 2909
ดาษ 2909
ปัจ@@ 2909
phlebologists 2908
tra 2908
щ@@ 2908
ดินเนอร์ 2908
สมาพันธ์ 2908
night 2907
ภาณุ@@ 2907
มูซา 2907
แตก@@ 2907
key@@ 2906
ฉี 2906
โกศล 2906
As 2905
Wat 2905
uck@@ 2905
ดรีม 2905
แกรนด์@@ 2905
บริหาร@@ 2904
บอร์@@ 2904
ลงท้าย 2904
หจ 2904
เหา 2904
EST@@ 2903
Glo@@ 2903
ตั๊ก 2903
รนด์ 2903
itation 2902
จ้าน 2902
ประชวร 2902
วก@@ 2902
สว่าน 2902
Prince 2901
S8 2901
wit@@ 2901
บ้านนอก 2901
со@@ 2900
พร่อง 2900
หนด 2900
Penza 2899
lus 2899
ธปท. 2899
เส็ง 2899
ไวท์เทน 2899
Civic 2898
196 2897
Vib@@ 2897
pop@@ 2897
สิริมงคล 2897
หนวก 2897
นพ. 2896
นูเอล 2896
พระตำหนัก@@ 2896
ร่มเกล้า 2896
не@@ 2895
slim 2893
ซิบ 2893
Built 2892
นาว 2892
ปวงชน 2892
หวนกลับ 2892
เข็ม@@ 2891
Guest 2890
Wide 2890
cur@@ 2890
ปิ๊ง 2890
Equ@@ 2889
Pep@@ 2889
ซิด 2889
เพอร์เฟ@@ 2889
Coin 2888
คว 2888
เกี 2888
แฝก 2888
cla@@ 2887
ซิก@@ 2887
ปล่าว 2887
หืด 2887
Key@@ 2886
Organic 2886
SHO@@ 2886
คลิ 2886
แซะ 2886
2564 2885
ล้มลุก 2885
อุจิ 2885
ไฝ 2885
Skype 2884
dev@@ 2884
เอทีเอ็ม 2884
Pynzar 2883
nov@@ 2883
ชะงัก 2883
ซิง@@ 2883
มิลี่ 2883
รบ@@ 2883
อัค@@ 2883
atsu 2882
ยูน 2882
สิงห์@@ 2882
เนิ่น 2882
S9 2881
rac@@ 2881
zi@@ 2881
นำ@@ 2881
เดช@@ 2881
contact 2879
list@@ 2879
สเตอร์@@ 2879
ฉัน@@ 2878
อดิ@@ 2878
แชมเปี้ยน 2878
แนท 2878
แน่ะ 2878
โพส@@ 2878
1985 2877
SSL 2877
กว่ 2877
กาล@@ 2876
แหน่ง 2876
trip 2875
สัย 2875
เทศบาล@@ 2875
เสน่หา 2875
Function 2874
หวุดหวิด 2874
long@@ 2873
unbranded 2873
คณะรักษาความสงบแห่งชาติ 2873
ยำเกรง 2873
ปากน้ำ 2872
พรรคเพื่อไทย 2872
มิเชล 2872
hot@@ 2871
ผิน 2871
มหาวิทยาลัยเทคโนโลยีราชมงคล 2871
หอบหืด 2871
อิล 2871
เจ็ต 2871
๑๙@@ 2871
Adidas 2870
คาด@@ 2870
ฟร@@ 2870
เมทัลชี 2870
Country 2869
ฆวน 2869
ทราน 2869
เมาท์ 2869
vo 2868
รง 2868
ไบต์ 2868
อะแดปเตอร์ 2867
Down 2866
Flo@@ 2866
Local 2866
ฌ 2866
ทธิ์ 2866
ert 2865
К@@ 2865
อดอยาก 2865
เสกสมรส 2865
🏻@@ 2865
Dance 2864
feed 2864
รน@@ 2864
Yam@@ 2863
uck 2863
หมิ่นประมาท 2863
Bon@@ 2862
Executive 2862
เกาลัด 2862
Real@@ 2861
World@@ 2861
ital 2861
มหาวิทยาลัยนเรศวร 2861
ระลอก 2861
อวสาน 2861
ไหวพริบ 2861
AY@@ 2860
aw 2860
ral 2860
El 2859
Treatment 2859
seo 2859
หึ 2859
เภ@@ 2859
กกกก 2858
ทวีคูณ 2858
ทีวีไกด์ 2858
ฝี 2858
六@@ 2858
กาด 2857
ผวจ. 2857
Gener@@ 2856
MK 2856
ongk@@ 2856
ยูเนสโก 2856
สมณะ 2856
เปแอ 2856
section 2855
ทวิ@@ 2855
มิโน 2855
เอกซเรย์ 2855
ature 2854
คชั่น 2854
นอล 2854
บางเบา 2854
ลาซิ 2854
แอสไพริน 2854
ไทเป 2854
BIG 2853
มัล 2853
ิด@@ 2852
093 2851
TOR@@ 2851
กระเบน 2851
จิรา@@ 2851
พิกุล 2851
พิศวง 2851
ITY 2850
กิม@@ 2850
นปช. 2850
Mount 2849
Water@@ 2849
fied 2849
น.ส. 2849
พยวรางกูร 2849
หัวหอ 2849
236 2848
Hydro@@ 2848
ken 2848
ตระเตรียม 2848
พระราชวงศ์ 2848
ไกล่เกลี่ย 2848
บอน@@ 2847
Blo@@ 2846
Items 2846
Steam 2846
pool 2846
มาย@@ 2846
เจ้าคุณ@@ 2846
แตนเล 2846
take 2845
tru@@ 2845
your@@ 2845
พระพรหม 2844
เดิ@@ 2844
เบจ 2844
เวด 2844
Bio@@ 2843
TK 2843
ตถ@@ 2843
สัง 2843
็อน 2843
bot@@ 2842
วิสาขบูชา 2842
แปรเปลี่ยน 2842
开@@ 2842
loan 2841
กระดก 2841
คลุกคลี 2841
ปาร@@ 2841
เปรต 2841
โอเมก้า 2841
Ho@@ 2840
Seven 2840
กลวง 2840
ฟี่ 2840
gb 2839
สลด 2839
BTC 2838
Friday 2838
Vintage 2838
การแพทย์ 2838
สมเด็จพระนางเจ้า 2838
แจ็ 2838
890 2837
Nat@@ 2837
ปราชัย 2837
สปิริต 2837
สันสกฤต 2837
099 2836
Т@@ 2836
คราฟ 2836
Ki@@ 2835
more… 2835
ข่าน 2835
ตบ@@ 2835
ยาว@@ 2835
ญีปุ่น 2834
อัก@@ 2834
แหง 2834
Earth 2833
tis@@ 2833
ปลอบใจ 2833
world@@ 2832
ทัดเทียม 2832
ประนีประนอม 2832
เกียรติคุณ 2832
ึ่ง 2831
Balance 2830
Medical 2830
Mul@@ 2830
กับ@@ 2830
สมเด็จพระสัมมาสัมพุทธเจ้า 2830
อึ 2830
เซียม 2830
เสมียน 2830
แคลอรี 2830
NY@@ 2829
VC 2829
ด่าน@@ 2829
สนง. 2829
Developer 2828
Honor 2828
total 2828
มอเตอร์@@ 2828
วานิช 2828
เท็กซ์ 2828
Controller 2827
สมอ 2827
เวบไซต์ 2827
Nu@@ 2826
พรีเมีย 2826
ลอย@@ 2826
อัจฉริยภาพ 2826
pack@@ 2825
ทฤษฏี 2825
る@@ 2825
NEWS 2824
วด์ 2824
สงบ@@ 2824
Programming 2823
show@@ 2823
ทุเลา 2823
ปิด@@ 2823
สแตน 2823
Infinity 2822
ข่ม@@ 2822
จังหวัดนครศรีธรรมราช 2822
นางนอน 2822
พศ. 2822
ฟีด 2822
หนะ 2822
AAA 2821
Flu@@ 2821
ICS 2821
Ty@@ 2821
ila 2821
อำเภ@@ 2821
ю@@ 2820
ler@@ 2819
โอสถ 2819
Toy 2818
อ้น 2818
duc@@ 2817
zer 2817
ป่ะ 2817
พฤ@@ 2817
อีฟ 2817
马@@ 2817
2510 2816
GI 2816
ซัก@@ 2816
ประชารัฐ 2816
รเวท 2816
วิบัติ 2816
return 2815
เควส 2815
games 2814
เบด 2814
แสก 2814
Lum@@ 2813
та@@ 2813
พลับ 2813
ลลิ@@ 2813
9001 2812
ปิงปอง 2812
เดีย@@ 2812
เรดาร์ 2812
เลโก้ 2812
โยเซฟ 2812
ไต้ 2812
Deluxe 2811
IL 2811
Luc@@ 2811
skin 2811
กฤษ@@ 2811
กฤษฎีกา 2811
กลูโคส 2811
กิ่ง@@ 2811
คาวา@@ 2811
สัป@@ 2811
สไ@@ 2811
อว์ 2811
Lar@@ 2810
tha@@ 2809
กักกัน 2809
พริกขี้หนู 2809
รู้เห็น 2809
อ่อนนุช 2809
โน้มถ่วง 2809
ดัช@@ 2808
ลอยด์ 2808
499 2807
MBA 2807
ออดิชั่น 2807
เคีย 2807
เยรูซาเล็ม 2807
เวอรี่ 2807
535@@ 2806
Inverter 2806
je 2806
Kong 2805
MON@@ 2805
just 2805
two 2805
บำบัดรักษา 2804
วัชรพล 2804
เวชกรรม 2804
จังหวัดนครนายก 2803
โย่ง 2803
را@@ 2802
ข้อง 2802
ณั@@ 2802
ศักดา 2802
ตั๊กแตน 2801
บดินทร์ 2801
บึง@@ 2801
wa@@ 2800
สกา 2800
สมร 2800
สำรับ 2800
728 2799
Wedding 2799
na@@ 2799
วัว@@ 2799
ข้อ@@ 2798
ครูบา@@ 2798
ชำ@@ 2798
แนว@@ 2798
し@@ 2798
Clinic 2797
NT@@ 2797
Toys 2797
area 2797
ดูหมิ่น 2797
แทรกซึม 2797
แฮม@@ 2797
ไทเกอร์ 2797
GP@@ 2796
arin 2796
241 2795
กลั่นแกล้ง 2795
คับ@@ 2795
อพาร์ทเม้นท์ 2795
wan 2794
ลี่@@ 2794
แอสตัน 2793
sub 2792
คาบสมุทร@@ 2792
ฟุ้งซ่าน 2792
ลน 2792
โดะ 2792
053 2790
316 2790
เที่ยงธรรม 2790
Sing@@ 2789
Today 2789
WinningFT 2789
Lev@@ 2788
where 2788
คับแคบ 2788
จุกจิก 2788
บุนเดสลี 2788
พรรณนา 2788
เมจิ 2788
source 2787
ตม 2787
นัม@@ 2787
พิงค์ 2787
มัมมี่ 2787
พืชผล 2786
Dol@@ 2785
FIFA 2785
เดิ้ล 2785
EU@@ 2784
พี่น้องประชาชน 2784
เริง 2784
AG 2783
amazon 2783
มัต@@ 2783
เเค่ 2783
โป๊กเกอร์ 2783
รัฐแคลิฟอร์เนีย 2782
สระ@@ 2782
โต๊ 2782
Effect 2781
smear 2781
ฉกรรจ์ 2781
ผ้าถุง 2781
ษฐ@@ 2781
ร้ 2780
วัตฟอร์ 2780
โชกุน 2780
FT 2779
Xnxx 2779
กัวลาลัมเปอร์ 2779
ทอ@@ 2779
ศาสน 2779
อุปมา 2779
็ป@@ 2779
216 2778
Ekaterinburg 2778
PS4 2778
â@@ 2778
อาร์เจนติน่า 2778
221 2777
bus 2777
ซันเดอร์แลนด์ 2777
นกพิราบ 2777
นครนิวยอร์ก 2777
พรวน 2777
bolero 2776
ects 2776
sec@@ 2776
sen 2776
ฉา 2776
ครองใจ 2775
สะดุดตา 2775
กรุงปักกิ่ง 2774
ภัย@@ 2774
ไซปรัส 2774
ALL@@ 2773
MAN@@ 2773
บาย@@ 2773
พระนิเวศ 2773
ฟอง@@ 2773
วาร์@@ 2773
ฮาน@@ 2773
เฉียว 2773
BN@@ 2772
เฟน 2772
cot@@ 2771
พิธีการ 2771
วุ้นเส้น 2771
แพร่ระบาด 2771
233 2770
model 2770
เกี๊ยว 2770
COMP@@ 2769
ควบค 2769
ซาตาน 2769
ทด@@ 2769
มอสโก. 2769
เร็ค 2769
ขย@@ 2768
ประเวณี 2768
มู่ 2768
LD@@ 2767
public 2767
หลง@@ 2767
ิล 2767
........@@ 2766
061 2766
learning 2766
กักขัง 2766
ส่วย 2766
EEC 2765
pe 2765
ร้ายกาจ 2765
ไนลอน 2765
Rich 2764
ตวัด 2764
นาด 2764
ป่อง 2764
ย่อง 2764
ลักษ@@ 2764
อีร์ 2764
โศกเศร้า 2764
325 2763
Bir@@ 2763
อัญ@@ 2763
Blade 2762
IPS 2762
win@@ 2762
ราษฎร์@@ 2762
ษ์ 2762
ь@@ 2761
พล.อ.ประวิตร 2761
Tu@@ 2760
ปักหลัก 2760
อรัล 2760
อาห์ 2760
โอดาวน์ 2760
ฟุ่มเฟือย 2759
เอซี 2759
วิป 2758
เอสเตอร์ 2758
District 2757
Three 2757
ฟูจิ@@ 2757
หดหู่ 2757
เหี่ยวย่น 2756
เอโก้ 2756
Pay@@ 2755
bn@@ 2755
ear 2755
ธรรมกาย 2755
นพ 2755
โมฆะ 2755
2507 2754
verage 2754
money 2753
บุค@@ 2753
รั่วไหล 2753
ราคะ 2753
โพก 2753
โมฮาเหม็ด 2753
ari@@ 2752
day@@ 2752
ington 2752
iz 2752
ris@@ 2752
บัวบก 2752
เสี้ยน 2752
โรเม 2752
่วย 2752
12V 2751
ping 2751
โอย@@ 2751
Kawasaki 2750
eks 2750
ซอร์@@ 2750
ประกันภัย 2750
ผด 2750
ฝาแฝด 2750
พยา@@ 2750
ฟลาย 2750
เมษา 2750
เหร 2750
กระเทย 2749
หาย@@ 2749
อานา 2749
1982 2748
440 2748
Palmar 2748
pos 2748
มาบ 2748
มารีวิว 2748
สกุ 2748
Clean 2747
GD@@ 2747
computer 2747
holiday 2747
จุดจบ 2747
People 2745
\cHFFFFFF 2745
div 2745
edge 2745
ฆ่า@@ 2745
โห่ 2745
กุมาร@@ 2744
ทัวร์@@ 2744
ผ่ 2744
อวน 2744
โฮมสเตย์ 2744
PER@@ 2743
iPhone@@ 2743
instagram 2743
yo@@ 2743
พระเนตร 2743
อะคริลิค 2743
神@@ 2743
GF@@ 2742
coun@@ 2742
ซัลเฟต 2742
นิรมิต 2742
แอร์เอเชีย 2742
DV@@ 2741
Side 2741
book@@ 2741
eff@@ 2741
มนุษยธรรม 2741
สีด 2741
Paint 2740
Ratch@@ 2740
Il@@ 2739
camera 2739
สลวย 2739
แรคเตอร์ 2739
Saratov 2738
eh@@ 2738
umi 2738
คลีนิค 2738
ชาลี 2738
เซิน 2738
เรย 2738
Meeting 2737
SB 2737
ผง@@ 2737
พฤติการณ์ 2737
ลอร์ด 2737
อาโก้ 2737
Ransomware 2736
some 2736
คำขวัญ 2736
่ำ@@ 2736
ซีนี 2735
ฟกช้ำ 2735
รำ@@ 2735
berry 2734
ยย@@ 2734
285 2733
กมัย 2733
ชั 2733
พระอภิธรรม 2733
วัดพระธาตุ 2733
อ่อย 2733
เบะ 2733
hotel 2732
sea 2732
ดดี้ 2732
ลายมือชื่อ 2732
อุ่น@@ 2732
是@@ 2732
Autumn 2731
Tech@@ 2731
ive 2731
raw@@ 2731
นง 2731
นายสุร@@ 2731
พุทธกาล 2731
ชัยวัฒน์ 2730
นิน@@ 2730
กินี 2729
พระอินทร์ 2729
เลค@@ 2729
เอ็มวี 2729
โมนาโก 2729
ไคร@@ 2729
EOS 2728
Orange 2728
เข้ารอบ 2728
ury 2727
ถึงแก่กรรม 2727
ไห@@ 2727
NC 2726
х@@ 2726
เม็ง 2726
เวส@@ 2726
ク@@ 2726
ซีเรียส 2725
สำนักงานปลัด 2725
หยิก 2725
Cast@@ 2724
GMP 2724
Tan@@ 2724
ดน@@ 2724
วิกตอเรีย 2724
เธอร์@@ 2724
Wi@@ 2723
los 2723
printer 2723
แซลมอน 2723
ไฟฟ้า@@ 2723
ions 2722
usa 2722
สมาพันธ์@@ 2722
เน็ตเวิร์ค 2722
แหม่ม 2722
ren 2721
จ์@@ 2721
NU@@ 2720
Western 2720
had 2720
พระอาจารย์@@ 2720
ล็อ@@ 2720
็อ 2720
Sub 2719
adv@@ 2719
fish 2719
idae 2719
ภาร@@ 2719
สยามสแควร์ 2719
เมลา 2719
แมง@@ 2719
inder 2718
ง่าม 2718
โนรา 2718
โลน 2718
Valley 2717
พริก@@ 2717
เซนส์ 2717
00000 2716
บุฟ 2716
พลิ้ว 2716
เง่า 2716
Taobao 2715
ists 2715
tie 2715
หน่วย@@ 2715
คำราม 2714
ปอร์@@ 2714
หึง 2714
แซ่@@ 2714
ไอซีที 2714
Match 2713
organ@@ 2713
ฟรีแลนซ์ 2713
รัษฎากร 2713
คอนโด@@ 2712
ถู@@ 2712
วิทยบริการ 2712
OT@@ 2711
กลาง@@ 2711
ปากช่อง 2711
ี้ยน 2711
เฉิง 2711
ท่าพระ 2710
ปฏิสังขรณ์ 2710
186 2709
430 2709
Mon 2709
UB@@ 2709
strephexopodia 2709
บรอม 2709
อูเบอร์เอ็กซ์ 2709
1900 2708
1945 2708
dog@@ 2708
คอร์รัปชัน 2708
ชาร์ท 2708
สะพรั่ง 2708
เบลเยี่ยม 2708
App@@ 2707
a” 2707
know 2707
tro@@ 2706
จุดประสงค์ 2706
พลิเคชัน 2706
เมกะวัตต์ 2706
Cache 2705
Cut 2705
จ.สมุทรปราการ 2705
ปฐ@@ 2705
สไตน์ 2705
หมอชิต 2705
japan@@ 2704
ซุย 2704
พิมาย 2704
254@@ 2703
Swiss 2703
dic@@ 2703
สารานุกรม 2703
เปอร์เซนต์ 2703
เย้ 2703
Box@@ 2702
Pokemon 2702
kt@@ 2702
คิตตี้ 2702
อาด 2702
♥ 2702
Thailand@@ 2701
ทึก 2701
วาร์ดิโอ 2701
Trend 2700
Tun@@ 2700
 2700
กลับ@@ 2698
ทิชชู่ 2698
ผักบุ้ง 2698
สมานฉันท์ 2698
าหนด 2698
Lightning 2697
ทันท่วงที 2697
นายสุเทพ 2697
ปาล์ 2697
Tom 2696
ille 2696
ough 2696
จรัญ 2696
จํานวน 2696
ทั่ง 2696
ปูด 2696
ING@@ 2695
walk 2695
ทับซ้อน 2695
ทัวร์นาเมนต์ 2695
นามบัตร 2695
หนัก@@ 2695
เลียม 2695
Stand 2694
mid@@ 2694
ถี่ถ้วน 2694
ภูผา 2694
สิ้น@@ 2694
อดิศักดิ์ 2694
เฮนรี่ 2694
Gold@@ 2693
มอก 2693
รีบร้อน 2693
วิชชา 2693
สถูป 2693
ห้อ 2693
เรอร์ 2693
เล้ง 2693
Rolex 2692
kn@@ 2692
นี่@@ 2692
อ่อนนุ่ม 2692
โกว 2692
ches 2691
พระรัตนตรัย 2691
ภะ 2691
251 2690
application 2690
ธิราช 2690
มิเกล 2690
เฮนรี 2690
แมท@@ 2690
lot@@ 2689
โครเมี่ยม 2689
Cha@@ 2688
TOEFL 2688
ester 2688
ทมิฬ 2688
4x4 2687
IZ@@ 2687
ฉ. 2687
box@@ 2686
คาราเมล 2686
หนัง@@ 2686
เดี 2686
Ref@@ 2685
hard@@ 2685
organic 2685
water@@ 2685
นิต@@ 2685
เหตุปัจจัย 2685
ラ@@ 2685
Aw@@ 2684
อิริยาบถ 2684
เกื้อ 2684
Fire@@ 2683
Foam 2683
М@@ 2683
ทุกข์@@ 2683
พระผู้ 2683
ка 2682
พิฆาต 2682
BLACK 2681
นิเมะ 2681
บอสตัน 2681
เปลี่ยว 2681
เศียร 2681
262 2680
Extract 2680
Prime 2680
ลูต้า 2680
แท็ 2680
้ย@@ 2680
กึ่งกลาง 2679
นิง 2679
ku@@ 2678
พยาม 2678
พระเจ้าแผ่นดิน 2678
560 2677
ปาฐกถา 2677
event 2676
но 2676
กลู@@ 2676
ญี่ 2676
เชี่ยว 2676
266 2675
cope 2675
เคป 2675
ไรซ์ 2675
&@@ 2674
ต่อว่า 2674
สปาย 2674
Cla@@ 2673
ลีโอ 2673
แคลร์ 2673
โอะ@@ 2673
り@@ 2673
aging 2672
ดุษฎีบัณฑิต 2672
นฤ@@ 2672
ONG 2671
Speaker 2671
หน่อไม้ 2671
อนุ 2671
เทพธิดา 2671
8GB 2670
Economic 2670
Ring 2670
aceae 2670
light@@ 2670
note 2670
sensor 2670
วิศวะ 2669
เฟสติวัล 2669
๖@@ 2669
Corporation 2668
เนรเทศ 2668
แฮน 2668
dom@@ 2667
ต้อง@@ 2667
ี่ยว 2667
坛 2667
ITE 2666
Legend 2666
ถ่า 2666
ริชาร์ด 2666
ลูมิเนียม 2666
789 2665
wave 2665
ตกทอด 2665
ฤดี 2665
ā@@ 2664
ตัดขาด 2664
พระภูมิ 2664
หยิน 2664
Color@@ 2663
Furniture 2663
Reader 2663
กัม@@ 2663
论@@ 2663
tv@@ 2662
ทช์ 2662
บาร์บี้ 2662
พระภิกษุสงฆ์ 2662
สนม 2662
หงษ์ 2662
เล็ม 2662
ไพลิน 2662
้าง 2662
Challenge 2661
กรมทางหลวง 2661
ถาง 2661
295 2660
Carbon 2660
High@@ 2660
change 2660
dit 2660
 2660
คัง@@ 2660
ทาร์@@ 2660
ผูก@@ 2660
อาภรณ์ 2660
วีดิโอ 2659
สันดาน 2659
DO 2658
พระสุ@@ 2658
เวิลด์@@ 2658
Pin@@ 2657
Ultimate 2657
padding 2657
palace 2657
เซาแธมป์ 2657
Keyboard 2656
ประคับประคอง 2656
หวิว 2656
925 2655
ธนาคารกสิกรไทย 2655
หลงลืม 2655
92@@ 2654
MF@@ 2654
Winter 2654
ก่อกวน 2654
เสือโคร่ง 2654
ผวา 2653
สุลต่าน 2653
心@@ 2653
Material 2652
arm 2652
password 2652
กิจการ@@ 2652
ข่ 2652
บ้านห้วย@@ 2652
การเกษตร 2651
พลาส 2651
เตรีย 2651
์ม 2651
fa@@ 2650
ทอร์@@ 2650
พาเลท 2650
Build 2649
บาต 2649
Sak@@ 2648
javhd 2648
กอบ@@ 2648
สแปม 2648
003 2647
Bedroom 2647
shopping 2647
กัลโช่ 2647
พรรคคอมมิวนิสต์ 2647
พื้น@@ 2647
ลอกเลียน 2647
ฮิล@@ 2647
โค๊ด 2647
้วน 2647
WD 2646
js 2646
กิโลวัตต์ 2646
ตต@@ 2646
วัฒน 2646
หยุดชะงัก 2646
โด่ 2646
ences 2645
squ@@ 2645
จิตติ 2645
ทาร@@ 2645
ล่วงละเมิด 2645
เอท 2645
โป้ไทย 2645
คอง 2643
Factory 2642
ater@@ 2642
cul@@ 2642
hr 2642
rov 2642
จัดซื้อ 2642
ผลาญ 2642
AO@@ 2641
ลูกหนัง 2641
สุภาษิต 2641
เท็ก 2641
ไวไฟ 2641
Tips 2640
filter 2640
ศุภชัย 2640
248 2639
Certificate 2639
Toner 2639
anger 2639
xml 2639
รูนีย์ 2639
แชโดว์ 2639
โมน 2639
iss 2638
ผึ่ง 2638
ว่านหางจระเข้ 2638
แดก 2638
โมเด@@ 2638
โยชิ@@ 2638
จี่ 2637
มพร 2637
Ay@@ 2636
Flower 2636
พ.อ.@@ 2636
229 2635
510 2635
pustular 2635
ออกฤทธิ์ 2635
แยก@@ 2635
Flow 2634
4shared 2633
BK 2633
commerce 2633
แอนน์ 2633
ธีระ@@ 2632
ลาห์ 2632
วิกฤตการณ์ 2632
เรย์@@ 2632
มัลดีฟส์ 2631
Long@@ 2630
พิทักษ์@@ 2630
ฮ่องเต้ 2630
เสรีนิยม 2630
512 2629
ทัย 2629
สถาปัตยกรรมศาสตร์ 2629
เมค 2629
Bol@@ 2628
fur@@ 2628
คณะรัฐศาสตร์ 2628
Radi@@ 2627
ขยะมูลฝอย 2627
ทวีปแอฟริกา 2627
ฟาวล์ 2627
มัคคุเทศก์ 2627
MARKS 2626
atory 2626
ี้ยน@@ 2626
Hotels 2625
Lotion 2625
ancy 2625
รุ้ 2625
เมืองจีน 2625
Hospital 2624
Production 2624
Property 2624
อารา@@ 2624
เส้นใย 2624
32GB 2623
KTC 2623
ตาน 2623
ที่นั่ง 2623
ปปิ้ง 2623
ภัทร์ 2623
ภาส 2623
ลิ้น@@ 2623
อู๋ 2623
TECH 2622
awan 2622
จะ@@ 2622
ระแวง 2622
สลีย์ 2622
โมริ 2622
Jack@@ 2621
SCP 2621
ther 2621
กดขี่ 2621
Sin@@ 2620
Youth 2620
wp 2620
ปฏิกรณ์ 2620
ศธ 2620
เริ 2620
เฮา@@ 2620
Apps 2619
lay@@ 2619
ดอร์@@ 2619
ยงค์ 2619
็อบ 2619
atis@@ 2618
dekaris 2616
rent 2616
ระหว 2616
BD 2615
GEN@@ 2615
cd 2615
normal 2615
ทิว@@ 2615
ประชาชื่น 2615
พล.ต. 2615
เหนียวแน่น 2615
DER 2614
NIKE 2614
clip@@ 2614
rich 2614
กะหล่ำปลี 2614
สนามกีฬา@@ 2614
高@@ 2614
Scale 2613
kan@@ 2613
mac@@ 2613
มนุช 2613
สํา@@ 2613
Bang 2612
WORLD 2612
กอบกู้ 2612
จังหวัดสมุทรสงคราม 2612
นำ้ 2612
บิ๊กไบค์ 2612
วีรกรรม 2612
1976 2611
จ.อุดรธานี 2611
แควร์ 2611
STR@@ 2610
unch 2610
ф@@ 2610
กว้างไกล 2610
ถี 2610
เวท@@ 2610
Kal@@ 2609
POS 2609
bot 2609
ฟอ 2609
เซย 2609
240@@ 2608
จักสาน 2608
Suites 2607
การท่องเที่ยวแห่งประเทศไทย 2607
ประก@@ 2607
มิว@@ 2607
ไบโอ 2607
Fib@@ 2606
osa 2606
pat@@ 2606
ณ์@@ 2606
นิโคลัส 2606
พิเศษ@@ 2606
๊อต 2606
ram@@ 2605
ชัก@@ 2605
สูงส่ง 2605
š@@ 2604
เบลาส์ 2604
305 2603
Mos@@ 2603
ติดมือ 2603
สมุน 2603
สอด@@ 2603
โชน 2603
MU 2602
jin 2602
program 2602
ทัศน@@ 2602
HOT 2601
Process 2601
grid 2601
จัดจ้าง 2601
โคบ 2601
โป็@@ 2601
Chat 2600
GCLUB 2600
aly@@ 2600
rot@@ 2600
ยอห์น 2600
หงอก 2600
เบสบอล 2600
เพส 2600
Bio 2599
Cra@@ 2599
also 2599
pre 2599
ยใจ 2599
DI 2598
rak@@ 2598
ปลอมแปลง 2598
แรง@@ 2598
不@@ 2598
around 2597
B6 2596
official 2596
u003e 2596
э@@ 2596
ตะลอน 2596
สัจ@@ 2596
สิงขร 2596
259 2595
Deb@@ 2595
Rider 2595
ood@@ 2595
ses 2595
มิลเลอร์ 2595
ี่ย์ 2595
เปียน 2595
โอลิ@@ 2595
away 2594
โลส 2593
HT@@ 2592
Mem@@ 2592
ต๊ะ 2591
ออล@@ 2591
มัค@@ 2590
หายห่วง 2590
ection 2589
inter 2589
ขนาบ 2589
ปลงใจ 2589
Bot@@ 2588
Therm@@ 2588
ช์@@ 2588
เจย์ 2588
เฮา 2588
Find 2587
ระเบียน 2587
สมรรถ 2587
Ray 2585
สร้ 2585
เนอร์@@ 2585
โขม 2585
Goal 2584
PCR 2584
Plug 2584
VPN 2584
when 2584
บริติช 2584
บาสเก็ต 2584
พระบุตร 2584
2” 2583
nemozol 2583
ประภา@@ 2583
พระนารายณ์ 2583
แบะ 2583
ไพร่ 2583
AH@@ 2582
JavaScript 2582
คุณหญิง 2582
บาเลน 2582
Broad@@ 2581
พู่กัน 2581
เอเลี่ยน 2581
แพรว 2581
ดังเช่น 2580
มิสเตอร์@@ 2580
หวิด 2580
เมกะ@@ 2580
Dur@@ 2579
Fac@@ 2579
vo@@ 2579
リ@@ 2579
honda 2578
ker@@ 2578
พิท 2578
ไฮม์ 2578
Ham@@ 2577
Hard@@ 2577
ฮอลลีวู้ด 2577
แอนิเมชัน 2577
psor@@ 2576
ลื่นไหล 2576
วาท@@ 2576
แปล@@ 2576
S4 2575
бо@@ 2575
16GB 2574
2506 2574
HUAWEI 2574
ended 2574
ซิโอ 2574
ดูใจ 2574
2497 2573
Industrial 2573
Tiger 2573
แฮมป์ 2573
Ji@@ 2572
MITSUBISHI 2572
lor@@ 2572
คุณหมอ 2572
ริก@@ 2572
สต์@@ 2572
แหม่ 2572
By@@ 2571
Mob@@ 2571
Ton@@ 2571
ged 2571
ometer 2571
ตะกู 2571
รัตนาธิเบศร์ 2571
Panel 2570
tan@@ 2570
กรมพระ@@ 2570
ดับเบิ้ล 2570
สตรา@@ 2570
เป็นใจ 2570
โฆ@@ 2570
🙏@@ 2570
ft@@ 2569
ขัน@@ 2569
มาสด้า 2569
เหมิน 2569
โคนัน 2569
โบราณวัตถุ 2569
Far@@ 2568
ทุม@@ 2568
บัวทอง 2568
สนา 2568
Jet 2567
เดม 2567
เมม 2567
AX 2566
uss@@ 2566
ตย์ 2566
ุ่ม 2566
ออริ@@ 2565
242 2564
375 2564
ten 2564
ีบ 2564
เข็ญ 2564
gy@@ 2563
ตลิ่งชัน 2563
หักหลัง 2563
Sum@@ 2562
จังหวัดจันทบุรี 2562
ดาล 2562
เพิ 2562
mas@@ 2561
กรมปศุสัตว์ 2561
ปง 2561
ปณ@@ 2561
ประเทศแคนาดา 2561
ศอ 2561
นายสมชาย 2560
น่ 2560
อมร 2560
เปา@@ 2560
than 2559
เมริเดียน 2559
โปรดักชั่น 2559
252 2558
960 2558
KO 2558
Moto 2558
จื่อ 2558
ซาฟารี 2558
ดิช 2558
ฟิวส์ 2558
ฤทธิ@@ 2558
ONLINE 2557
ล่อลวง 2557
สเตชั่น 2557
โม๊ค 2557
cast 2556
2017@@ 2555
Arch@@ 2555
PLC 2555
ending 2555
特@@ 2555
224 2554
Books 2554
atin 2554
nik@@ 2554
آ@@ 2554
จิตร@@ 2554
สอ@@ 2554
สำเพ็ง 2554
๒๕๓@@ 2554
Sco@@ 2553
start 2553
ฟืน 2553
มาส@@ 2553
than@@ 2552
บ่@@ 2552
oth@@ 2551
san 2551
ดร.สุ@@ 2551
อเบอร์รี่ 2551
เนเจอร์ 2551
มาสคอต 2550
ยุ่งเกี่ยว 2550
660 2549
ทู้ 2549
บาเลนเซีย 2549
เหล่ 2549
แต่@@ 2549
โซลาร์ 2549
2508 2548
British 2548
bon@@ 2548
veins 2548
บานปลาย 2548
EUR 2547
MG@@ 2547
after 2547
oldid 2547
บาร์ซ่า 2547
เล่น@@ 2547
เวชภัณฑ์ 2547
ชนะ@@ 2546
พิค 2546
มัต 2546
แฮน@@ 2546
sim@@ 2545
ชัช@@ 2545
ปิ่น@@ 2545
SMART 2544
equ@@ 2544
คาบสมุทร 2544
1979 2543
214 2543
กท@@ 2543
มิต@@ 2543
ตีน@@ 2542
โช้ค 2542
Indi@@ 2541
iller 2541
กราน 2541
อิเล็ก@@ 2541
เทนเมนต์ 2541
8C 2540
RF 2540
เย็ดเมีย 2540
เล่อ 2540
โนจี 2540
្@@ 2540
Chain 2539
Copy 2539
PA@@ 2539
SAMSUNG 2539
ти@@ 2539
จู่ 2539
ถนนพระราม 2539
นาเมนต์ 2539
บางปะอิน 2539
ประก 2539
ลูป 2539
เกท 2539
เกี่ยวโยง 2539
โค่ 2539
FT@@ 2538
ขมิบ 2538
แคท@@ 2538
สคริปต์ 2537
Scan 2536
hover 2536
iner 2536
กาเบรียล 2536
สปอต 2536
ARE 2535
LY 2535
cd@@ 2535
สวิตซ์ 2535
กอร์ 2534
ฟอยล์ 2534
โลดแล่น 2534
MR 2533
aku 2533
vesnushki 2533
บางรัก 2533
สาธารณประโยชน์ 2533
สไต@@ 2533
ียร@@ 2533
เหว่ย 2533
โรว์ 2533
Economy 2532
GoldClub 2532
href 2532
ธีระ 2532
ร่ม@@ 2532
amin@@ 2531
ки 2531
เอนด์ 2531
Herbs 2530
ทะเลสาบ@@ 2530
ฮัล@@ 2530
ไอแพด 2530
Nag@@ 2529
Wa@@ 2529
ired 2529
จังหวัดพัทลุง 2529
แบล็ก 2529
A8 2528
Cel@@ 2528
Cineplex 2528
Kaw@@ 2528
ยึด@@ 2528
เพลย์@@ 2528
243 2527
Malyshev 2527
Som@@ 2527
sel@@ 2527
ชะนี 2527
รีสอร์ต 2527
สว 2527
โรฒ 2527
tem@@ 2526
вы@@ 2526
ถิ@@ 2526
บรอนซ์ 2526
อ่อง 2526
NVIDIA 2525
Netflix 2525
นาวิกโยธิน 2525
aris 2524
ต่@@ 2524
กำปั้น 2523
ญญา@@ 2523
แชะ 2523
sum@@ 2522
tile 2522
ข้าวสวย 2522
เครื่องราง 2522
โอง 2522
SQL 2521
tivity 2521
ผลิต@@ 2521
สะกิด 2521
ไฟว์ 2521
有@@ 2521
CAT@@ 2520
Camp@@ 2520
hon@@ 2520
กรุงโซล 2520
กะเพรา 2520
ชอป 2520
ตระหง่าน 2520
บีบีซี 2520
พรรคไทยรักไทย 2520
เรนเจอร์ 2520
แคว 2520
แวน@@ 2520
โนเบล 2520
โว้ย 2520
account 2519
บางซื่อ 2519
บุษ@@ 2519
มหาดเล็ก 2519
ฮอล@@ 2519
แม่เลี้ยง 2519
Aer@@ 2518
มายด์ 2518
อเมริกาเหนือ 2518
เปรี้ยง 2518
โพง 2518
Pack@@ 2517
เขื่อง 2517
ใว้ 2517
20000 2516
Stand@@ 2516
โรค@@ 2516
๊อ@@ 2516
ครึ้ม 2515
บางขุนเทียน 2515
บางแค 2515
มิลล์ 2515
วาม 2515
หัวแม่ตีน 2515
gam@@ 2514
บิ้น 2514
พลุกพล่าน 2514
TF 2513
iw@@ 2513
lt 2513
นอกใจ 2513
บั้ง 2513
302 2512
ซีย์ 2512
ธ.ก.ส. 2512
นักหนา 2512
ระยำ 2512
วิดีโอ@@ 2512
อุปสงค์ 2512
เมี่ยม 2512
237 2511
i7 2511
uro@@ 2511
ซิส@@ 2511
พัฟ 2511
Junior 2510
wedding 2510
กมล@@ 2510
ริม@@ 2510
โฉ@@ 2510
Analytics 2509
กระทรวงต่างประเทศ 2509
อิตา 2509
FIN@@ 2508
Solid 2508
akh@@ 2508
plu@@ 2508
گ@@ 2508
หม่อมเจ้า@@ 2508
855BET 2507
stone 2507
กรมการขนส่งทางบก 2507
ขึง 2507
ท้อแท้ 2507
สมคิด 2507
ใกล้@@ 2507
AMG 2506
STAR 2506
gay 2506
แย้ 2506
เซียร์ 2505
แบรน@@ 2505
แห่งชาติ@@ 2505
โคโล@@ 2505
โสภา 2505
baby 2503
อำเภอแม่@@ 2503
เซอร์กิต 2503
แนะนํา 2503
Dom@@ 2502
Haw@@ 2502
ทัง 2502
ยืนต้น 2502
ลิโอ 2502
โค้ 2502
process 2501
บุคคลากร 2501
เวอ 2501
เสรีไทย 2501
Dat@@ 2500
ial@@ 2500
น้อยใหญ่ 2500
บังคม 2500
วิทย@@ 2500
สำนักงานคณะกรรมการการ 2500
อาถรรพ์ 2500
เล็ท 2500
แคร 2500
【@@ 2500
being 2499
ชีวประวัติ 2499
ดุร้าย 2499
ภั 2499
แคล้ว 2499
โตน 2499
Bright 2498
bike 2498
cut 2498
super 2498
จิ๊บ 2498
ตื่นตระหนก 2498
บ้วน 2498
วาท 2498
โฉลก 2498
244 2497
S7 2497
flo@@ 2497
ตอร์ 2497
พริม 2497
วัช 2497
สภานิติบัญญัติ 2497
Times 2496
Week 2496
ภ.จว.@@ 2496
เซาะ 2496
เห็ดหลิน 2496
Law 2495
Dun@@ 2494
France 2494
chem@@ 2494
จูนเนอร์ 2494
Bed 2493
มงคล@@ 2493
1968 2492
Rack 2492
Simple 2492
lat@@ 2492
ธวัช 2492
Li 2491
กรู 2491
ซานฟรานซิสโก 2491
พริบตา 2491
พัทธ์ 2491
BLO@@ 2490
Down@@ 2490
โกร 2490
CZ 2489
Capital 2489
ฉาน 2489
สินไหม 2489
จุติ 2488
นๆ 2488
แสม 2488
000000 2487
Agency 2487
คัท@@ 2487
ป์ 2487
มัท 2487
ติชม 2486
มหากาพย์ 2486
อลิซ 2486
study 2485
จรัส 2485
ฝืด 2485
EV 2484
ซาลา 2484
ประชุม@@ 2484
อกุศล 2484
อีส 2484
226 2483
FIL@@ 2483
RB@@ 2483
master 2483
ชาล 2483
ทีท่า 2483
มจ.@@ 2483
สโล@@ 2483
ใส้ 2483
West@@ 2482
แอดไลน์ 2482
72@@ 2481
TAG 2481
next 2481
บ่วง 2481
มิลค์ 2481
สนามกีฬา 2481
อภิเษกสมรส 2481
แจกแจง 2481
会@@ 2481
PG 2480
soft 2480
กรมอุตุนิยมวิทยา 2480
ลูกรัง 2480
เฟื่อง 2480
เมอร์เซเดส 2480
ไลเนอร์ 2480
Chart 2479
ป๊อบ 2479
อื 2479
Cross@@ 2478
HIV 2478
TG 2478
arm@@ 2478
chat 2478
f158200 2478
พิมล 2478
มหาวิทยาลัยสงขลา 2478
เยวัช 2478
เอเชี่ยน 2478
CX 2477
ел@@ 2477
จ.กาญจนบุรี 2477
นายอภิ@@ 2477
วิบูลย์ 2477
แดเนียล 2477
แอนดรูว์ 2477
247 2476
tour@@ 2476
กัลยา 2476
vip 2475
คีย์@@ 2475
ดัก@@ 2475
เซบี 2475
1st 2474
ธนากร 2474
วัดบาง@@ 2474
เจได 2474
เผ่า@@ 2474
Compact 2473
GK 2473
ibcbet 2473
กลมกล่อม 2473
ฟิวเจอร์ 2473
เชื้อ@@ 2473
SEN@@ 2472
zy@@ 2472
คอนเน@@ 2472
ดิษฐ์ 2472
ผาย 2472
พักตร์ 2472
ส้ม@@ 2472
หยง 2472
อีดี 2472
เจียระไน 2472
เวต 2472
980 2471
Nut@@ 2471
è@@ 2471
พระพุทธมนต์ 2471
เอื้ออาทร 2471
Caps 2470
blu@@ 2470
siam@@ 2470
คิวบา 2470
พารามิเตอร์ 2470
เเรก 2470
โยชิ 2470
TT 2469
Yes 2469
กล้วย@@ 2469
พิมาน 2469
พีท 2469
ศูนย์พัฒนา 2469
๐๘ 2469
64GB 2468
BANGKOK 2468
Louis 2468
Reb@@ 2468
พิทยาคม 2468
2509 2467
Dri@@ 2467
cour@@ 2467
กรู@@ 2467
จว. 2467
บาร์ซา 2467
อัซ@@ 2467
อ่าง@@ 2467
เถรวาท 2467
micro@@ 2466
Ve@@ 2465
iter 2465
276 2464
Bab@@ 2464
Ts@@ 2464
217 2463
green 2463
som@@ 2463
ฟลา 2463
แช่ง 2462
228 2461
ua 2461
τ@@ 2461
รังแก 2461
ลูมิเนีย 2461
สารบัญ 2461
เมดิ@@ 2461
Ker@@ 2460
LIVE 2460
Soul 2460
ชักจูง 2460
อนันต@@ 2460
โดร 2460
เธ 2459
ชวลิต 2459
บิกิ 2459
ผิดเพี้ยน 2459
ยิน@@ 2459
ย่า@@ 2459
แบค@@ 2459
โภคภัณฑ์ 2459
ไนกี้ 2459
gon@@ 2458
ทูป 2458
โอ้ว@@ 2458
710 2457
atter@@ 2457
tlpro2 2457
กรมศุลกากร 2457
อาย@@ 2457
SIM 2456
XXXX 2456
anti 2456
ema 2456
พระบรมธาตุ 2456
อินเทล 2456
เจ้ 2456
เติบ 2456
Department 2455
ike 2455
กฎ@@ 2455
คาร์โล 2455
ราห์ 2455
Komorowski 2454
Philips 2454
Sat@@ 2454
กระสินธ์ 2454
กัป 2454
ตํา 2454
ลุกไหม้ 2454
ente 2453
พรหมจรรย์ 2453
รูท 2453
PL 2452
ices 2452
sonnik 2452
ซอน@@ 2452
ธัน@@ 2452
บุญเรือง 2452
พระเจ้าวรวงศ์เธอ 2452
Ind@@ 2451
ร.ต.อ.@@ 2451
Inter 2450
Woo@@ 2450
i5 2450
olog@@ 2450
pot@@ 2450
ปส์ 2450
เกลื่อน 2450
Light@@ 2449
Platinum 2449
aper 2449
bangkok 2449
ลักหลับ 2449
ไอริช 2449
SPENCER 2448
Triple 2448
gs 2448
ตุ๊ก 2448
ธนาคารกรุงไทย 2448
เราะ 2448
BR 2447
dio 2447
agu@@ 2446
เบร์ 2446
แทะ 2446
คีย์เวิร์ด 2445
จำใจ 2445
พระศาสดา 2445
ระแนง 2445
ละอาย 2445
ศิ 2445
โซเฟีย 2445
โตร 2445
160@@ 2444
คบ@@ 2444
คอร์น 2444
ชักนำ 2444
ดีวี 2444
ผลัดเปลี่ยน 2444
พระบรมวงศานุวงศ์ 2444
เทียน@@ 2444
BOX 2443
Layer 2443
TR 2443
medi@@ 2442
mom@@ 2442
สโก 2442
097 2441
Concert 2441
rain 2441
แบม 2441
218 2440
263 2440
Hak@@ 2440
dat@@ 2440
eye 2440
gy 2440
ยุ้ย 2440
หิ้ง 2440
ReadyPlanet 2439
ku 2439
เพลส 2439
Sense 2438
alt 2438
ри@@ 2438
ธรรมนูญ 2438
พิซซ่า@@ 2438
ภัตตา 2438
เอาต์ 2438
โฮม@@ 2438
239 2437
2502 2437
SALE 2437
lip 2437
คริสต์ศักราช 2437
สำนักงานส่งเสริม@@ 2437
สำริด 2437
เเต่ง 2437
ο@@ 2436
วงษ์@@ 2436
Cu@@ 2435
Sul@@ 2435
นกยูง 2435
พัฒ@@ 2435
เฮิร์@@ 2435
MK@@ 2434
aty 2434
decoration 2434
ining 2434
mp 2434
struc@@ 2434
ซารา@@ 2434
บรรณาการ 2434
สิทธ์ 2434
เรสซิเดนซ์ 2434
แวร์@@ 2434
Led 2433
there 2433
กรมประมง 2433
กระหึ่ม 2433
ทุม 2433
460 2432
ซุกซ่อน 2432
ไพรส์ 2432
พริ้ว 2431
พล่าน 2431
BLUE 2430
CLUB 2430
คลี่ 2430
ปากเสียง 2430
Lot@@ 2429
ipp@@ 2429
ori@@ 2429
วิทยาศาสตร์และ 2429
into 2428
บอลลูน 2428
พระวิ@@ 2427
ยูโร@@ 2427
สกี@@ 2427
สือ 2427
580 2426
ลาดตระเวน 2426
เก่งกาจ 2426
แฟร์@@ 2426
แฮร์รี 2426
โปรดักส์ 2426
ไสยศาสตร์ 2426
ที่มาที่ไป 2425
เก็บกัก 2425
เรซิ่น 2425
Eng@@ 2424
KT@@ 2424
LOVE 2424
คณะกรรมการการเลือกตั้ง 2423
เคย์ 2423
โทนเนอร์ 2423
107@@ 2422
ify 2422
540 2421
FF 2421
Profile 2421
thailand@@ 2421
ขุ 2421
ช่อน 2421
เว้ย 2421
เอิร์ธ 2421
โดร@@ 2421
Message 2420
days 2420
flow 2420
through 2420
ฟลอเรนซ์ 2420
วิทยาเขต@@ 2420
เเน@@ 2420
โปรเจ็กต์ 2420
Chiangmai 2419
มินิบาร์ 2419
อนุโลม 2419
โสต@@ 2419
bin 2418
po 2418
คณะวิทยาศาสตร์ 2418
พล.ต.@@ 2418
ระอุ 2418
ศิว@@ 2418
Rama 2417
ere@@ 2417
ทวีปอเมริกา 2417
ท่วมท้น 2417
พท. 2417
สะเทือนใจ 2417
เธกเน 2417
Select 2416
Vista 2416
จิตต@@ 2416
Maker 2415
Router 2415
Book@@ 2414
ดรี@@ 2414
มอร์แกน 2414
อือ 2414
Aus@@ 2413
been 2413
หนึ 2413
เรเนียน 2413
โปรโมชัน 2413
Makeup 2412
fast 2412
marketing 2412
จุง 2412
บอม 2412
Lifestyle 2411
Not@@ 2411
ibex 2411
จารณา 2411
ตุน 2411
บ้านไร่ 2411
ป้องกัน@@ 2411
ฟอล@@ 2411
ฟาสต์ 2411
ฟ็อกซ์ 2411
แบล็ค@@ 2411
แฟรงก์ 2411
HOME 2410
Id 2410
Mom@@ 2410
Washington 2410
aria 2410
bin@@ 2410
condo 2410
han 2410
urn 2410
เธ 2410
ชิร@@ 2410
มาลาเรีย 2410
เจ้าสัว 2410
Port@@ 2409
unt 2409
บริสุทธ์ 2409
แบกรับ 2409
315 2408
50000 2408
gra@@ 2408
แมลงสาบ 2408
ACE 2407
Sticker 2407
ger@@ 2407
ple@@ 2407
อุตสาหะ 2407
เดี้ยง 2407
เตล 2407
Club@@ 2406
T2 2406
กิจธุระ 2406
ดอม 2406
ดิก 2406
อ่อ 2406
เคทีซี 2406
โหล@@ 2406
ได้รับ 2406
Derm@@ 2405
OS@@ 2405
Sor@@ 2405
Track 2405
ชีวิตจิตใจ 2405
อูม 2405
ไพ่บาคาร่า 2405
Ivory 2404
TF@@ 2404
ประมาน 2404
หล่อ@@ 2404
เอกภพ 2404
ใจความ 2404
๒๔๙@@ 2404
กระปรี้กระเปร่า 2403
ขมับ 2403
เซ็ก@@ 2403
works 2402
น.@@ 2402
อาราธนา 2402
เป๊ก 2402
Cutting 2401
LAND 2401
ี่ยว@@ 2401
แจ็คสัน 2401
ใจกว้าง 2401
ott@@ 2400
งส์ 2400
ทำนุบำรุง 2400
ปีติ 2400
อาร์ท 2400
ham@@ 2399
meth@@ 2399
กิโมโน 2399
ตุ่น 2399
สถานีโทรทัศน์@@ 2399
อรา 2399
เนื้อหาสาระ 2399
005 2398
ชาร์ลส์ 2398
pa@@ 2397
อริส 2397
tro 2396
org@@ 2395
กิ้น 2395
รัส@@ 2395
ศวร 2395
อำเภอหนอง@@ 2395
At 2394
Log 2394
นาคา 2394
อดุลย์ 2394
เซฟ@@ 2394
เตียรอยด์ 2394
แอบแฝง 2394
Converter 2393
Only 2393
prot@@ 2393
ขยำ 2393
ซ.ม. 2393
พิกล 2393
ภักดิ์ 2393
อาร์เอส 2393
1983 2392
Hua 2392
dd@@ 2392
ฉะ 2392
Fresh 2391
fiction 2391
isa 2391
กาลา@@ 2391
ซักฟอก 2391
ตรม 2391
ประชาธิปัตย์ 2391
สโตร 2391
Jet@@ 2390
Kingdom 2390
SON@@ 2390
ตช์ 2390
บิง 2390
ลินี 2390
โศกนาฏกรรม 2390
mammoplasty 2389
🙂 2389
Terminal 2388
ral@@ 2388
อาณาบริเวณ 2388
อุทาหรณ์ 2388
อเมริกาใต้ 2388
เนชั่นส์ 2388
เย็น@@ 2388
2504 2387
Christmas 2387
Green@@ 2387
PRE@@ 2387
pyatna 2387
san@@ 2387
สมัคร@@ 2387
bud@@ 2386
ven 2386
พิน@@ 2386
ูป 2386
ใจจริง 2386
KK@@ 2385
Steve 2385
ธีราทร 2385
ศัย 2385
1930 2384
fi 2384
กรุงเทพ@@ 2384
ประเทศสวิตเซอร์แลนด์ 2384
หม่น 2384
แว่ว 2384
ธาดา 2383
ปรโลก 2383
ลอรี 2383
อุท@@ 2383
LO 2382
front 2382
จุดด่าง 2382
ซิยา 2382
ทรอย 2382
hard 2381
VI@@ 2380
วีไอ 2380
อนุกรม 2379
เหวิน 2379
S6 2378
level 2378
pap@@ 2378
จิตแพทย์ 2378
พระบรมราชินีนาถ 2378
เมอ 2378
เลเยอร์ 2378
Asi@@ 2377
MRI 2377
esk@@ 2377
iphone@@ 2377
ื้อ@@ 2377
เซลลูไลท์ 2377
แพร์ 2377
Pas@@ 2376
ซีนา 2376
Client 2375
งการ 2375
ซีซัน 2375
ศั@@ 2375
)@@ 2374
Pop@@ 2374
erv@@ 2374
มูก 2374
ไบรอัน 2374
Cloud@@ 2373
Swe@@ 2373
ปรักหักพัง 2373
c.bg[!und:]transparent 2372
sid@@ 2372
กาง@@ 2372
นาวี 2372
รันเวย์ 2372
1978 2371
258 2371
Death 2371
อ๊อด 2371
เย็ด@@ 2371
345 2370
Bit 2370
EE 2370
RGB 2370
idol 2370
ติน@@ 2370
หับ 2370
ียบ 2370
เลอร์@@ 2370
ไขสัน 2370
254 2369
rap@@ 2369
xy 2369
HT 2368
ปลาร้า 2368
สร้าง@@ 2368
อภิเษก 2368
ฮอน@@ 2368
BL 2367
Mont@@ 2367
ali 2367
ฅ@@ 2367
งค@@ 2367
ลัด@@ 2367
ศี@@ 2367
ไทด์ 2367
ア@@ 2367
ands 2366
คอนเสิร์ 2366
พิบูลย์ 2366
สเปอร์ส 2366
เธตเน 2366
CB 2365
ile@@ 2365
กู๊ด 2365
ชว@@ 2365
พหุ@@ 2365
Gadget 2364
Plastic 2364
SA@@ 2364
ography 2364
นิโกร 2364
สังข@@ 2364
อบเชย 2364
เติล 2364
เรียบเนียน 2364
Mot@@ 2363
ชาร@@ 2363
Smile 2362
พาร์ทเนอร์ 2362
เรื 2362
Set@@ 2361
dog 2361
eon 2361
orm@@ 2361
tig@@ 2361
van 2361
พระเจ้าอยู่หัว 2361
พายัพ 2361
NT 2360
Neurodermatitis 2360
Paper 2360
Siamdara 2360
flash 2360
จังหวัดอุตรดิตถ์ 2360
นายพล@@ 2360
บอร์ด@@ 2360
Cruise 2358
Ninja 2358
Optical 2358
กรั@@ 2358
งัน 2358
ชื้อ 2358
เทือกเขา@@ 2358
Banking 2357
Financial 2357
Inst@@ 2357
วัชร@@ 2357
แก๊ป 2357
An 2356
aid 2356
รบ. 2356
เพร 2356
1964 2355
จีน. 2355
นิมิตร 2355
ิ่ง 2355
เอพี 2355
เอสเอ็มอี 2355
DF 2354
Dem@@ 2354
พระชายา 2354
หัวหมาก 2354
อัก 2354
แม่โจ้ 2354
สอบ@@ 2353
เดียงสา 2353
เบญจ 2353
Java 2352
Soft@@ 2352
ขาง 2352
คาลิ@@ 2352
ทอด@@ 2352
ทำมือ 2352
ปัว 2352
เหล่า@@ 2352
fit 2351
การุ@@ 2351
สุล 2351
ินส์ 2351
เร่ร่อน 2351
✨ 2351
ANG 2350
PlayStation 2350
Viv@@ 2350
Wel@@ 2350
คู้ 2350
มอย 2350
อยส์ 2350
Analysis 2349
Bil@@ 2349
ification 2349
inner 2349
คต@@ 2349
ฆา@@ 2349
ซูเปอร์สตาร์ 2349
ผ่อนผัน 2349
เรอ 2349
แบล็คลิส 2349
BlackBerry 2348
CMS 2348
Complex 2348
Device 2348
Motor@@ 2348
force 2348
นาวา@@ 2348
Д@@ 2347
เพิง 2347
เสิร์ช 2347
Jam@@ 2346
Mass 2346
ปรีดี 2346
สท 2346
Martin 2345
Rid@@ 2345
ici@@ 2345
ต้อม 2345
ว่าน@@ 2345
โนเกีย 2345
bab@@ 2344
hand 2344
จับตาดู 2344
บริเตน 2344
SER@@ 2343
idi@@ 2343
Н@@ 2343
Us@@ 2342
dies 2342
@@ 2342
ซาอูล 2342
นครนายก 2342
บรอด 2342
ผศ.ดร. 2342
ร.ร.@@ 2342
ษี 2342
สีห์ 2342
กาแล@@ 2341
คิง@@ 2341
เกะกะ 2341
เมดิเตอร์ 2341
ดอยสุเทพ 2340
นอย 2340
ลูกพี่ลูกน้อง 2340
เรื่อ 2340
โค้ก 2340
238 2339
sheet 2339
กิ๊ฟ 2339
บอสเนีย 2339
ียส 2339
320@@ 2338
Ast@@ 2338
responsive 2338
การี 2338
ตัดใจ 2338
บ้านหนอง 2338
สเตอร์ลิง 2338
สเป็ค 2338
เจอร์ส 2338
ซาว 2337
ทัชสกรีน 2337
เกศ@@ 2337
poly@@ 2336
ดุลพินิจ 2336
ตกรรม 2336
ปฐมภูมิ 2336
ฝรั่งเย็ด 2336
วเตอ 2336
2498 2335
Die 2335
Window 2335
วาบ 2335
D8 2334
istic 2334
แฮช 2334
Naruto 2333
Vo@@ 2333
mai 2333
ories 2333
จิง@@ 2333
[...]
